<unk>	0
<pad>	0
<s>	0
</s>	0
▁我	-0
..	-1
▁你	-2
我们	-3
什么	-4
▁他	-5
一个	-6
知道	-7
...	-8
▁我们	-9
他们	-10
▁但	-11
如果	-12
不是	-13
没有	-14
可以	-15
因为	-16
▁在	-17
你的	-18
▁好	-19
▁她	-20
我的	-21
这个	-22
▁如果	-23
▁不	-24
自己	-25
可能	-26
怎么	-27
现在	-28
▁是	-29
▁当	-30
已经	-31
你们	-32
时候	-33
这样	-34
就是	-35
的人	-36
告诉	-37
觉得	-38
....	-39
▁因为	-40
这些	-41
需要	-42
不会	-43
所以	-44
▁一	-45
不能	-46
他的	-47
为什么	-48
只是	-49
公司	-50
工作	-51
▁别	-52
问题	-53
00	-54
▁但是	-55
▁我不	-56
孩子	-57
喜欢	-58
所有	-59
到了	-60
这里	-61
美国	-62
这么	-63
开始	-64
应该	-65
认为	-66
时间	-67
▁有	-68
中国	-69
起来	-70
的时候	-71
▁对	-72
东西	-73
▁所以	-74
▁他们	-75
那个	-76
的事	-77
的一	-78
这是	-79
▁把	-80
▁好吧	-81
真的	-82
一样	-83
一起	-84
先生	-85
还是	-86
那些	-87
好的	-88
一些	-89
朋友	-90
希望	-91
发现	-92
是个	-93
为了	-94
▁就	-95
的是	-96
那么	-97
世界	-98
研究	-99
的话	-100
▁这	-101
其他	-102
我不	-103
还有	-104
一下	-105
今天	-106
人的	-107
地方	-108
▁很	-109
▁我是	-110
......	-111
任何	-112
提供	-113
来的	-114
电话	-115
▁我想	-116
看到	-117
政府	-118
但是	-119
国家	-120
▁它	-121
▁你们	-122
发生	-123
经济	-124
准备	-125
一直	-126
▁当然	-127
相信	-128
▁你知道	-129
一次	-130
在这	-131
给你	-132
进行	-133
生活	-134
▁我知道	-135
我们的	-136
给我	-137
都是	-138
让我	-139
▁如果你	-140
大的	-141
非常	-142
必须	-143
这种	-144
▁我要	-145
或者	-146
出来	-147
▁听	-148
▁哦	-149
了一	-150
我是	-151
▁从	-152
两个	-153
我想	-154
自己的	-155
▁-	-156
很多	-157
离开	-158
妈妈	-159
她的	-160
▁为什么	-161
▁我觉得	-162
重要	-163
之前	-164
找到	-165
一定	-166
意思	-167
▁是的	-168
以及	-169
▁嘿	-170
上的	-171
以为	-172
一点	-173
来了	-174
我会	-175
好了	-176
也不	-177
只有	-178
▁嗯	-179
▁不过	-180
正在	-181
通过	-182
它们	-183
▁你的	-184
感觉	-185
想要	-186
计划	-187
市场	-188
明白	-189
20	-190
然后	-191
部分	-192
成为	-193
人们	-194
。-	-195
他们的	-196
来说	-197
不要	-198
我要	-199
关系	-200
如何	-201
下来	-202
中的	-203
看看	-204
你是	-205
那里	-206
▁我的	-207
情况	-208
我就	-209
过去	-210
了吗	-211
使用	-212
而且	-213
影响	-214
最后	-215
银行	-216
那样	-217
我说	-218
一种	-219
担心	-220
安全	-221
▁每	-222
让你	-223
er	-224
不知道	-225
包括	-226
▁上	-227
抱歉	-228
好吗	-229
不过	-230
服务	-231
▁我在	-232
也是	-233
这一	-234
10	-235
个人	-236
以前	-237
▁可	-238
作为	-239
之后	-240
酒店	-241
出去	-242
告诉我	-243
有点	-244
得到	-245
就会	-246
不同	-247
有人	-248
决定	-249
完全	-250
系统	-251
帮助	-252
在这里	-253
▁去	-254
小时	-255
投资	-256
▁噢	-257
斯特	-258
发展	-259
选择	-260
回来	-261
无法	-262
不想	-263
关于	-264
事情	-265
医生	-266
200	-267
新的	-268
大学	-269
▁我可以	-270
女人	-271
很好	-272
也许	-273
▁好的	-274
同时	-275
an	-276
伙计	-277
许多	-278
▁什么	-279
你说	-280
表示	-281
肯定	-282
如此	-283
▁是啊	-284
继续	-285
我在	-286
技术	-287
美元	-288
你在	-289
▁你要	-290
企业	-291
去了	-292
社会	-293
是在	-294
父亲	-295
19	-296
▁不是	-297
▁我不知道	-298
告诉你	-299
方面	-300
是的	-301
做的	-302
你知道	-303
我知道	-304
更多	-305
机会	-306
管理	-307
电视	-308
▁你在	-309
几个	-310
是我	-311
能够	-312
中心	-313
”。	-314
认识	-315
之间	-316
▁听着	-317
不到	-318
谢谢	-319
这样的	-320
走了	-321
接受	-322
▁快	-323
▁现在	-324
结果	-325
▁呃	-326
儿子	-327
高兴	-328
方式	-329
in	-330
方法	-331
组织	-332
了解	-333
▁我只	-334
不错	-335
有一	-336
过来	-337
▁但我	-338
要求	-339
主义	-340
英国	-341
▁你不	-342
今晚	-343
▁啊	-344
调查	-345
是什么	-346
死了	-347
▁怎么	-348
▁你想	-349
分析	-350
记得	-351
控制	-352
因此	-353
一切	-354
总是	-355
保护	-356
分钟	-357
学校	-358
出现	-359
甚至	-360
爱的	-361
on	-362
支持	-363
?-	-364
爸爸	-365
警察	-366
注意	-367
信息	-368
你不	-369
的地方	-370
清楚	-371
女孩	-372
说的	-373
你会	-374
出了	-375
大家	-376
就像	-377
▁他的	-378
地区	-379
名字	-380
改变	-381
做了	-382
▁今天	-383
是一个	-384
存在	-385
总统	-386
所有的	-387
男人	-388
原因	-389
怎样	-390
你要	-391
等等	-392
▁我有	-393
看起来	-394
第一	-395
▁再	-396
ar	-397
了我	-398
当然	-399
看见	-400
活动	-401
上去	-402
尽管	-403
多少	-404
城市	-405
的东西	-406
处理	-407
哪里	-408
回家	-409
设计	-410
的事情	-411
并不	-412
▁我可	-413
唯一	-414
国际	-415
一个人	-416
有什么	-417
成功	-418
▁你得	-419
怎么样	-420
或许	-421
整个	-422
在一起	-423
解决	-424
别人	-425
明天	-426
▁我很	-427
▁只是	-428
并且	-429
主要	-430
房间	-431
▁天	-432
参加	-433
行为	-434
科学	-435
政治	-436
实际	-437
感到	-438
我也	-439
不了	-440
是一	-441
都会	-442
都不	-443
家庭	-444
星期	-445
晚上	-446
好吧	-447
里的	-448
可能会	-449
不起	-450
结束	-451
▁最	-452
其中	-453
交易	-454
有些	-455
日本	-456
家伙	-457
获得	-458
努力	-459
成了	-460
愿意	-461
咖啡	-462
真是	-463
▁为了	-464
▁我是说	-465
你就	-466
电影	-467
▁我也	-468
有个	-469
▁太	-470
在那	-471
行动	-472
件事	-473
听到	-474
人员	-475
▁像	-476
是否	-477
的大	-478
确定	-479
全球	-480
能力	-481
之一	-482
杀了	-483
几乎	-484
对于	-485
这儿	-486
免费	-487
消息	-488
数据	-489
▁她的	-490
来自	-491
我很	-492
欧洲	-493
▁我刚	-494
拥有	-495
▁我去	-496
兄弟	-497
过了	-498
以后	-499
考虑	-500
自由	-501
没事	-502
特别	-503
学生	-504
打电话	-505
年的	-506
说了	-507
运动	-508
是你	-509
房子	-510
进入	-511
汽车	-512
▁因为我	-513
即使	-514
的小	-515
报告	-516
▁我就	-517
▁为	-518
产品	-519
真正	-520
好像	-521
性的	-522
年轻	-523
比赛	-524
根本	-525
▁我们的	-526
12	-527
和你	-528
目前	-529
。”	-530
衣服	-531
英里	-532
哪儿	-533
▁我把	-534
在这儿	-535
▁你说	-536
历史	-537
让他	-538
女儿	-539
增长	-540
那是	-541
由于	-542
保证	-543
似乎	-544
和我	-545
当时	-546
▁我来	-547
你能	-548
容易	-549
你想	-550
办法	-551
生命	-552
办公	-553
机构	-554
变得	-555
永远	-556
表现	-557
目标	-558
▁嗨	-559
有关	-560
▁就像	-561
事实	-562
▁想	-563
解释	-564
帮我	-565
利用	-566
▁会	-567
保持	-568
环境	-569
政策	-570
马上	-571
了一个	-572
en	-573
上帝	-574
孩子们	-575
法律	-576
故事	-577
做什么	-578
证明	-579
令人	-580
al	-581
她们	-582
在我	-583
给他	-584
第二	-585
重新	-586
宝贝	-587
然而	-588
见过	-589
作用	-590
动物	-591
11	-592
危险	-593
受到	-594
▁你还	-595
里面	-596
将会	-597
▁他说	-598
才能	-599
▁无	-600
联系	-601
音乐	-602
or	-603
只要	-604
产生	-605
多数	-606
显示	-607
从来	-608
他是	-609
早上	-610
妻子	-611
照片	-612
价格	-613
教育	-614
▁那	-615
女士	-616
建议	-617
都在	-618
的问题	-619
生产	-620
母亲	-621
个月	-622
▁以	-623
▁你能	-624
漂亮	-625
精神	-626
至少	-627
▁你觉得	-628
▁他是	-629
我有	-630
最近	-631
麻烦	-632
我能	-633
检查	-634
价值	-635
仍然	-636
他在	-637
它的	-638
▁我们要	-639
项目	-640
见到	-641
▁当我	-642
帮你	-643
回去	-644
金融	-645
▁我不想	-646
简单	-647
对吧	-648
身上	-649
15	-650
直接	-651
拜托	-652
都有	-653
到底	-654
负责	-655
治疗	-656
年前	-657
▁他在	-658
其实	-659
印度	-660
律师	-661
可能是	-662
同样	-663
游戏	-664
人类	-665
你了	-666
制造	-667
过程	-668
会议	-669
30	-670
虽然	-671
飞机	-672
干嘛	-673
严重	-674
不好	-675
出的	-676
不可	-677
导致	-678
网络	-679
增加	-680
父母	-681
你有	-682
说话	-683
文化	-684
确实	-685
医院	-686
回到	-687
对我	-688
领导	-689
:“	-690
”,	-691
上了	-692
看着	-693
战争	-694
艺术	-695
理解	-696
合作	-697
很有	-698
代表	-699
咱们	-700
意味	-701
突然	-702
实际上	-703
干什么	-704
亲爱的	-705
▁我能	-706
新闻	-707
你可以	-708
下的	-709
你们的	-710
让我们	-711
跟我	-712
▁我没	-713
完成	-714
结婚	-715
▁我不是	-716
丈夫	-717
那种	-718
健康	-719
手机	-720
根据	-721
纽约	-722
▁你就	-723
我还	-724
st	-725
任务	-726
妈的	-727
听说	-728
le	-729
把它	-730
下去	-731
曾经	-732
办公室	-733
身体	-734
学习	-735
世纪	-736
另外	-737
建立	-738
意识	-739
具有	-740
自然	-741
打算	-742
者的	-743
承认	-744
会有	-745
▁大	-746
尤其	-747
的一个	-748
不得	-749
是谁	-750
人都	-751
了你	-752
证据	-753
我没	-754
进去	-755
今年	-756
利亚	-757
▁所有	-758
同意	-759
而已	-760
▁它们	-761
意义	-762
死亡	-763
把他	-764
一位	-765
害怕	-766
是不是	-767
变成	-768
▁或者	-769
风险	-770
是因为	-771
保险	-772
记录	-773
明显	-774
把我	-775
声音	-776
罗斯	-777
意味着	-778
客房	-779
文件	-780
通常	-781
多了	-782
▁她说	-783
我们要	-784
竞争	-785
更加	-786
这次	-787
实验	-788
不在	-789
只能	-790
▁然而	-791
▁这些	-792
ch	-793
其它	-794
人民	-795
),	-796
50	-797
经常	-798
▁据	-799
比较	-800
斯坦	-801
公路	-802
早餐	-803
的时间	-804
传统	-805
我可以	-806
造成	-807
变化	-808
都没	-809
有一个	-810
比如	-811
▁尽管	-812
反对	-813
仅仅	-814
it	-815
以来	-816
把你	-817
德国	-818
放在	-819
的最	-820
你还	-821
危机	-822
了吧	-823
▁与	-824
反应	-825
不用	-826
看上去	-827
▁两	-828
附近	-829
。。	-830
刚刚	-831
生物	-832
兴趣	-833
学家	-834
谈谈	-835
就能	-836
家人	-837
可是	-838
法国	-839
三个	-840
一步	-841
▁又	-842
就在	-843
未来	-844
食物	-845
说什么	-846
▁因此	-847
电脑	-848
▁等等	-849
基金	-850
也会	-851
▁这个	-852
公司的	-853
手术	-854
部门	-855
眼睛	-856
,“	-857
另一	-858
应用	-859
相关	-860
讨论	-861
执行	-862
如果你	-863
跟你	-864
▁抱歉	-865
建筑	-866
了什么	-867
联合	-868
错误	-869
我觉得	-870
想法	-871
▁我说	-872
开心	-873
伤害	-874
经历	-875
对你	-876
理论	-877
消费	-878
客户	-879
范围	-880
感谢	-881
▁我以为	-882
▁而	-883
必要	-884
▁如果我	-885
委员	-886
提高	-887
欢迎	-888
很快	-889
位于	-890
目的	-891
▁哪	-892
死的	-893
刚才	-894
▁但你	-895
各种	-896
紧张	-897
▁做	-898
正常	-899
拒绝	-900
标准	-901
随着	-902
很难	-903
到的	-904
奇怪	-905
每天	-906
进来	-907
失去	-908
出口	-909
允许	-910
我只是	-911
创造	-912
力的	-913
一天	-914
除了	-915
at	-916
而不是	-917
来越	-918
会的	-919
距离	-920
最好的	-921
地球	-922
用的	-923
就要	-924
▁在我	-925
越来越	-926
好好	-927
100	-928
这么做	-929
重要的	-930
▁对于	-931
试图	-932
▁你知道吗	-933
秘密	-934
报道	-935
放弃	-936
商业	-937
子里	-938
▁不管	-939
我去	-940
没人	-941
色的	-942
▁好了	-943
还在	-944
--	-945
子的	-946
最好	-947
事件	-948
第一次	-949
最终	-950
我不知道	-951
和他	-952
位置	-953
不断	-954
面的	-955
▁我不能	-956
基本	-957
享受	-958
▁我只是	-959
威胁	-960
武器	-961
实现	-962
不可能	-963
开发	-964
没错	-965
一家	-966
家里	-967
让人	-968
高速	-969
讨厌	-970
定的	-971
压力	-972
行的	-973
安排	-974
)。	-975
昨天	-976
电子	-977
基础	-978
▁你好	-979
el	-980
▁即使	-981
了他	-982
ro	-983
设备	-984
没什么	-985
▁一个	-986
尸体	-987
会儿	-988
▁我已经	-989
全部	-990
▁准备	-991
设施	-992
▁我从	-993
更多的	-994
他会	-995
员工	-996
资金	-997
表明	-998
多的	-999
并不是	-1000
吸引	-1001
不再	-1002
过的	-1003
意思是	-1004
程序	-1005
另一个	-1006
▁美国	-1007
▁你看	-1008
昨晚	-1009
在你	-1010
▁我们会	-1011
是吗	-1012
那儿	-1013
力量	-1014
现代	-1015
带来	-1016
什么时候	-1017
表演	-1018
我得	-1019
聪明	-1020
▁这是	-1021
▁可能	-1022
官员	-1023
计算	-1024
回事	-1025
民主	-1026
细胞	-1027
看来	-1028
超过	-1029
▁当时	-1030
约会	-1031
参与	-1032
玩笑	-1033
我来	-1034
巴马	-1035
▁很好	-1036
成员	-1037
女性	-1038
▁希望	-1039
空间	-1040
带着	-1041
▁“	-1042
加入	-1043
相当	-1044
这事	-1045
别的	-1046
责任	-1047
后来	-1048
水平	-1049
▁我喜欢	-1050
打开	-1051
尼亚	-1052
▁有人	-1053
留下	-1054
还没	-1055
拉克	-1056
媒体	-1057
其他人	-1058
网站	-1059
es	-1060
或是	-1061
还要	-1062
▁本	-1063
当地	-1064
忘了	-1065
▁小	-1066
一直在	-1067
▁今晚	-1068
糟糕	-1069
的影响	-1070
▁我认为	-1071
▁几	-1072
快点	-1073
▁多	-1074
也有	-1075
▁妈妈	-1076
帮忙	-1077
休息	-1078
减少	-1079
直到	-1080
收入	-1081
▁作为	-1082
学院	-1083
犯罪	-1084
我们会	-1085
让她	-1086
oo	-1087
面对	-1088
▁或许	-1089
销售	-1090
关键	-1091
18	-1092
失败	-1093
工程	-1094
足够	-1095
伦敦	-1096
绝对	-1097
业务	-1098
每个	-1099
有的	-1100
有效	-1101
资源	-1102
并没有	-1103
告诉他	-1104
阻止	-1105
不行	-1106
▁你不能	-1107
心理	-1108
专家	-1109
ac	-1110
晚餐	-1111
程度	-1112
▁因为你	-1113
奥巴马	-1114
不同的	-1115
最大的	-1116
怎么办	-1117
持续	-1118
小姐	-1119
大量	-1120
集团	-1121
完美	-1122
男孩	-1123
引起	-1124
都没有	-1125
▁下	-1126
有多	-1127
克斯	-1128
采取	-1129
条件	-1130
坚持	-1131
对吗	-1132
相信我	-1133
广告	-1134
的工作	-1135
十分	-1136
的情况	-1137
▁你应该	-1138
测试	-1139
公园	-1140
贸易	-1141
训练	-1142
为你	-1143
回答	-1144
客人	-1145
理由	-1146
旅行	-1147
一名	-1148
而言	-1149
的新	-1150
协议	-1151
怎么了	-1152
措施	-1153
长官	-1154
▁接	-1155
内容	-1156
寻找	-1157
关心	-1158
停止	-1159
监狱	-1160
委员会	-1161
你去	-1162
▁我需要	-1163
显然	-1164
我都	-1165
得很	-1166
住在	-1167
语言	-1168
公共	-1169
▁一些	-1170
正确	-1171
想到	-1172
痛苦	-1173
▁我没有	-1174
私人	-1175
韦斯特	-1176
ic	-1177
结构	-1178
爱你	-1179
神经	-1180
▁最后	-1181
关注	-1182
的那	-1183
听着	-1184
需求	-1185
抓住	-1186
值得	-1187
时代	-1188
是吧	-1189
怀疑	-1190
我们就	-1191
什么事	-1192
区域	-1193
夫人	-1194
用户	-1195
你也	-1196
提出	-1197
▁所以我	-1198
第三	-1199
发誓	-1200
外面	-1201
▁我本	-1202
否则	-1203
人士	-1204
改革	-1205
一份	-1206
不管	-1207
功能	-1208
小心	-1209
方向	-1210
攻击	-1211
▁全	-1212
贝斯特	-1213
之间的	-1214
对不起	-1215
找到了	-1216
受害	-1217
约翰	-1218
40	-1219
身份	-1220
食品	-1221
某些	-1222
▁伙计	-1223
在那里	-1224
领域	-1225
案子	-1226
一张	-1227
▁先生	-1228
样子	-1229
真正的	-1230
大多数	-1231
期间	-1232
冷静	-1233
俄罗斯	-1234
介绍	-1235
主意	-1236
一条	-1237
混蛋	-1238
用于	-1239
博士	-1240
的一切	-1241
▁拜托	-1242
让他们	-1243
酒吧	-1244
世界上	-1245
▁新	-1246
我们可以	-1247
我没有	-1248
拉斯	-1249
照顾	-1250
我们在	-1251
贝斯特韦斯特	-1252
给她	-1253
太阳	-1254
分子	-1255
餐厅	-1256
后面	-1257
恐怖	-1258
▁我叫	-1259
规定	-1260
投资者	-1261
贷款	-1262
资产	-1263
面前	-1264
资本	-1265
大利	-1266
不是吗	-1267
复杂	-1268
▁只有	-1269
破坏	-1270
似的	-1271
派对	-1272
要去	-1273
恢复	-1274
现场	-1275
▁关于	-1276
成本	-1277
谋杀	-1278
权利	-1279
专业	-1280
亿美元	-1281
充满	-1282
我不想	-1283
属于	-1284
▁如	-1285
错了	-1286
▁可是	-1287
一般	-1288
独立	-1289
▁别担心	-1290
尝试	-1291
行业	-1292
我已经	-1293
他说	-1294
过你	-1295
快乐	-1296
规模	-1297
机器	-1298
老板	-1299
上面	-1300
得了	-1301
re	-1302
▁打	-1303
我了	-1304
因素	-1305
病人	-1306
心脏	-1307
一场	-1308
观察	-1309
长期	-1310
看到了	-1311
▁总	-1312
例如	-1313
▁上帝	-1314
▁更	-1315
am	-1316
财政	-1317
生意	-1318
工具	-1319
也没	-1320
宣布	-1321
机场	-1322
小的	-1323
节目	-1324
想象	-1325
意大利	-1326
圣诞	-1327
您的	-1328
现实	-1329
也没有	-1330
出发	-1331
数字	-1332
▁只	-1333
状况	-1334
但我	-1335
头发	-1336
活着	-1337
袭击	-1338
模式	-1339
▁当你	-1340
再次	-1341
儿童	-1342
凶手	-1343
到达	-1344
这就是	-1345
长的	-1346
真的很	-1347
面临	-1348
时期	-1349
▁如果我们	-1350
困难	-1351
的研究	-1352
普通	-1353
适合	-1354
苹果	-1355
思想	-1356
北京	-1357
避免	-1358
联邦	-1359
as	-1360
军队	-1361
冰箱	-1362
互联	-1363
不太	-1364
状态	-1365
了个	-1366
每个人	-1367
了我的	-1368
第一个	-1369
开车	-1370
名的	-1371
共同	-1372
购买	-1373
经过	-1374
▁三	-1375
百万	-1376
经验	-1377
就可以	-1378
制度	-1379
达到	-1380
不对	-1381
观点	-1382
▁比	-1383
介意	-1384
难以	-1385
既然	-1386
我不会	-1387
职业	-1388
高的	-1389
▁布	-1390
放松	-1391
国内	-1392
停车	-1393
这件事	-1394
▁你为什么	-1395
货币	-1396
使得	-1397
▁无论	-1398
睡觉	-1399
▁不会	-1400
一只	-1401
穿着	-1402
像是	-1403
申请	-1404
中国的	-1405
消失	-1406
速度	-1407
够了	-1408
挑战	-1409
我不能	-1410
都要	-1411
日子	-1412
互联网	-1413
▁卡	-1414
开枪	-1415
教授	-1416
才是	-1417
石油	-1418
▁喂	-1419
任何人	-1420
共和	-1421
供应	-1422
▁你现在	-1423
说明	-1424
生的	-1425
毫无	-1426
真实	-1427
香港	-1428
些什么	-1429
信任	-1430
法官	-1431
il	-1432
开玩笑	-1433
▁一定	-1434
身边	-1435
知识	-1436
的方式	-1437
25	-1438
是啊	-1439
限制	-1440
▁该	-1441
医疗	-1442
的地	-1443
▁先	-1444
确保	-1445
礼物	-1446
西方	-1447
去年	-1448
意见	-1449
做出	-1450
走吧	-1451
老师	-1452
方案	-1453
也不会	-1454
▁孩子	-1455
▁带	-1456
▁我们在	-1457
掉了	-1458
不见	-1459
首先	-1460
▁距	-1461
那边	-1462
▁快点	-1463
资料	-1464
是我的	-1465
来看	-1466
欧元	-1467
生气	-1468
年来	-1469
姑娘	-1470
000	-1471
你怎么	-1472
垃圾	-1473
小孩	-1474
选举	-1475
疯狂	-1476
%。	-1477
我现在	-1478
事实上	-1479
亚洲	-1480
再见	-1481
我喜欢	-1482
发现了	-1483
习惯	-1484
收到	-1485
忘记	-1486
去找	-1487
终于	-1488
舒适	-1489
is	-1490
不多	-1491
16	-1492
实在	-1493
多久	-1494
指出	-1495
科学家	-1496
工业	-1497
▁一切	-1498
法庭	-1499
化的	-1500
而是	-1501
拿到	-1502
有可能	-1503
心的	-1504
和她	-1505
尤其是	-1506
一定要	-1507
▁此	-1508
年代	-1509
英语	-1510
他妈的	-1511
用来	-1512
发布	-1513
人在	-1514
▁你认为	-1515
14	-1516
▁英里	-1517
承诺	-1518
▁安	-1519
其他的	-1520
作品	-1521
这么说	-1522
一年	-1523
更好	-1524
▁告诉我	-1525
有趣	-1526
所谓	-1527
移动	-1528
有没有	-1529
命令	-1530
▁已经	-1531
那就	-1532
坐在	-1533
我们都	-1534
▁怎么了	-1535
的吗	-1536
▁中	-1537
是不	-1538
国的	-1539
13	-1540
大床	-1541
爆炸	-1542
下降	-1543
子弹	-1544
色列	-1545
ad	-1546
植物	-1547
▁是吗	-1548
午餐	-1549
极了	-1550
科技	-1551
进一步	-1552
幸运	-1553
的原因	-1554
▁找	-1555
▁我看	-1556
还不	-1557
他们会	-1558
▁我知道你	-1559
某种	-1560
土地	-1561
站在	-1562
部的	-1563
出来的	-1564
住了	-1565
▁你没	-1566
自我	-1567
警告	-1568
着我	-1569
系列	-1570
et	-1571
答案	-1572
简直	-1573
▁但他	-1574
建设	-1575
文章	-1576
美丽	-1577
▁如果他	-1578
的生活	-1579
形成	-1580
▁实际上	-1581
路上	-1582
债务	-1583
是有	-1584
大部分	-1585
记者	-1586
▁巴	-1587
我不是	-1588
角色	-1589
团队	-1590
说过	-1591
▁每次	-1592
通知	-1593
co	-1594
说你	-1595
▁你真	-1596
▁s	-1597
体系	-1598
下午	-1599
华盛	-1600
▁我再	-1601
华盛顿	-1602
和平	-1603
大概	-1604
这一切	-1605
太太	-1606
把她	-1607
婚礼	-1608
▁我真	-1609
几个月	-1610
给我们	-1611
▁明天	-1612
▁我对	-1613
▁中国	-1614
降低	-1615
家的	-1616
能源	-1617
▁告诉	-1618
杰克	-1619
经理	-1620
都很	-1621
投票	-1622
稳定	-1623
呼吸	-1624
几天	-1625
受伤	-1626
特殊	-1627
▁你不是	-1628
24	-1629
希腊	-1630
完了	-1631
这不是	-1632
处于	-1633
情绪	-1634
她在	-1635
▁我们得	-1636
un	-1637
和其他	-1638
我们有	-1639
意识到	-1640
无论	-1641
在那儿	-1642
公寓	-1643
你得	-1644
不仅	-1645
这位	-1646
▁这种	-1647
她是	-1648
态度	-1649
▁你不会	-1650
乔治	-1651
基因	-1652
▁很多	-1653
干的	-1654
199	-1655
比亚	-1656
军事	-1657
向你	-1658
的那个	-1659
还没有	-1660
杀人	-1661
▁离	-1662
杂志	-1663
游泳	-1664
效果	-1665
物质	-1666
我们是	-1667
来吧	-1668
周围	-1669
▁同时	-1670
听见	-1671
不喜欢	-1672
接近	-1673
▁看	-1674
会在	-1675
信号	-1676
▁一旦	-1677
.00	-1678
准备好	-1679
梦想	-1680
记忆	-1681
▁停	-1682
软件	-1683
▁m	-1684
外的	-1685
▁但是我	-1686
俱乐	-1687
时的	-1688
跟他	-1689
他们在	-1690
后的	-1691
采用	-1692
到处	-1693
要是	-1694
格兰	-1695
形式	-1696
及其	-1697
浪费	-1698
葡萄	-1699
行了	-1700
一定会	-1701
什么都	-1702
17	-1703
报纸	-1704
利益	-1705
旅游	-1706
早就	-1707
估计	-1708
对手	-1709
的高	-1710
障碍	-1711
▁请	-1712
实施	-1713
西班	-1714
是为了	-1715
有了	-1716
老婆	-1717
西班牙	-1718
▁我只想	-1719
各位	-1720
没有人	-1721
巨大的	-1722
60	-1723
▁假	-1724
有时	-1725
有很多	-1726
▁虽然	-1727
满足	-1728
交通	-1729
里斯	-1730
质量	-1731
邀请	-1732
来到	-1733
回来了	-1734
刺激	-1735
支付	-1736
▁孩子们	-1737
公开	-1738
数量	-1739
大约	-1740
疾病	-1741
这样做	-1742
他就	-1743
▁你怎么	-1744
真相	-1745
工厂	-1746
应当	-1747
教堂	-1748
句话	-1749
材料	-1750
之中	-1751
▁由于	-1752
的不	-1753
▁她们	-1754
对的	-1755
月份	-1756
经营	-1757
依然	-1758
下了	-1759
可怕	-1760
阿拉	-1761
▁天啊	-1762
太多	-1763
▁我听说	-1764
一段	-1765
发表	-1766
并非	-1767
等着	-1768
墨西	-1769
外国	-1770
还能	-1771
钥匙	-1772
感情	-1773
▁咱们	-1774
国家的	-1775
有所	-1776
套房	-1777
正是	-1778
墨西哥	-1779
针对	-1780
议员	-1781
损失	-1782
尔斯	-1783
人口	-1784
我需要	-1785
答应	-1786
邮件	-1787
你应该	-1788
是一种	-1789
▁原	-1790
婚姻	-1791
开了	-1792
药物	-1793
怎么做	-1794
妹妹	-1795
宗教	-1796
时刻	-1797
描述	-1798
展示	-1799
体育	-1800
啤酒	-1801
股票	-1802
▁好啊	-1803
你好	-1804
很大	-1805
开放	-1806
——	-1807
我是说	-1808
岁的	-1809
表达	-1810
毒品	-1811
进行了	-1812
▁也	-1813
给了	-1814
弟弟	-1815
规则	-1816
正式	-1817
▁每天	-1818
洛杉	-1819
迅速	-1820
一杯	-1821
幸福	-1822
航空	-1823
撒谎	-1824
从没	-1825
在哪	-1826
型的	-1827
首席	-1828
出生	-1829
▁b	-1830
因为我	-1831
▁你很	-1832
他了	-1833
课程	-1834
行驶	-1835
集中	-1836
样的	-1837
策略	-1838
火车	-1839
▁好像	-1840
!-	-1841
▁恩	-1842
为什么要	-1843
在他	-1844
的方法	-1845
以色列	-1846
合同	-1847
空气	-1848
遇到	-1849
哥哥	-1850
内部	-1851
▁穿	-1852
费用	-1853
结束了	-1854
的主	-1855
战斗	-1856
毕业	-1857
商品	-1858
洛杉矶	-1859
将在	-1860
▁神	-1861
同事	-1862
的经济	-1863
某个	-1864
生日	-1865
这么多	-1866
法院	-1867
试试	-1868
她会	-1869
化学	-1870
你自己	-1871
称为	-1872
做过	-1873
民族	-1874
快速	-1875
动力	-1876
董事	-1877
从未	-1878
兴奋	-1879
跟你说	-1880
非洲	-1881
对他	-1882
▁但我们	-1883
▁伊	-1884
ri	-1885
哥们	-1886
在一个	-1887
得不	-1888
道歉	-1889
英雄	-1890
上升	-1891
▁另外	-1892
飞行	-1893
监管	-1894
疯了	-1895
体的	-1896
▁我们都	-1897
公平	-1898
联盟	-1899
▁我们是	-1900
坏了	-1901
很高兴	-1902
是他	-1903
发生了	-1904
病毒	-1905
大了	-1906
面包	-1907
试着	-1908
不需要	-1909
俱乐部	-1910
合适	-1911
预测	-1912
卫星	-1913
类似	-1914
罗马	-1915
失望	-1916
本书	-1917
内的	-1918
地的	-1919
听起来	-1920
问你	-1921
灵魂	-1922
自动	-1923
实验室	-1924
把这	-1925
人物	-1926
性恋	-1927
在乎	-1928
有限	-1929
在这个	-1930
感受	-1931
屁股	-1932
恐惧	-1933
周末	-1934
的一些	-1935
▁所以你	-1936
▁你们两个	-1937
营业	-1938
美国的	-1939
人了	-1940
这一点	-1941
给他们	-1942
英寸	-1943
▁我和	-1944
感染	-1945
跳舞	-1946
更好的	-1947
的好	-1948
除非	-1949
舒服	-1950
债券	-1951
子上	-1952
国王	-1953
长时间	-1954
你来	-1955
▁凯	-1956
我所	-1957
部队	-1958
差不多	-1959
▁我们需要	-1960
对此	-1961
叫我	-1962
战略	-1963
外交	-1964
过程中	-1965
去看	-1966
▁向	-1967
名单	-1968
商店	-1969
相比	-1970
朝鲜	-1971
我们能	-1972
思考	-1973
全国	-1974
像个	-1975
大脑	-1976
欧盟	-1977
▁好好	-1978
定了	-1979
跟我说	-1980
▁克	-1981
积极	-1982
出现在	-1983
操作	-1984
都能	-1985
彼此	-1986
小子	-1987
确认	-1988
取得	-1989
意外	-1990
相同	-1991
试验	-1992
禁止	-1993
公众	-1994
一项	-1995
为止	-1996
消费者	-1997
ol	-1998
学会	-1999
一样的	-2000
感兴趣	-2001
风格	-2002
结论	-2003
动作	-2004
▁哈	-2005
不得不	-2006
按照	-2007
合理	-2008
中央	-2009
号码	-2010
下面	-2011
即将	-2012
那时	-2013
有着	-2014
...。	-2015
卫生	-2016
品牌	-2017
吃饭	-2018
基于	-2019
我们得	-2020
不该	-2021
竞选	-2022
棒了	-2023
▁别这样	-2024
自杀	-2025
厨房	-2026
干净	-2027
80	-2028
一块	-2029
现象	-2030
在哪里	-2031
进了	-2032
警方	-2033
eb	-2034
▁喔	-2035
阶段	-2036
取消	-2037
纪念	-2038
说他	-2039
是很	-2040
▁不好	-2041
▁我们有	-2042
谢谢你	-2043
指控	-2044
一件	-2045
批评	-2046
年了	-2047
能量	-2048
▁根据	-2049
的一部分	-2050
唯一的	-2051
制作	-2052
多么	-2053
常常	-2054
难道	-2055
▁你只	-2056
部长	-2057
道德	-2058
进展	-2059
现金	-2060
成的	-2061
我可	-2062
怎么回事	-2063
拿着	-2064
会上	-2065
宇宙	-2066
想的	-2067
放下	-2068
▁因为我们	-2069
探讨	-2070
你不能	-2071
知道的	-2072
▁既然	-2073
可爱	-2074
女朋友	-2075
▁换	-2076
▁他是个	-2077
出来了	-2078
谷歌	-2079
所有人	-2080
▁两个	-2081
▁?	-2082
为我	-2083
婴儿	-2084
提醒	-2085
演员	-2086
ur	-2087
中间	-2088
了你的	-2089
信用	-2090
在于	-2091
搜索	-2092
权力	-2093
学的	-2094
高级	-2095
收购	-2096
车里	-2097
引发	-2098
旁边	-2099
一边	-2100
th	-2101
新鲜	-2102
▁我就是	-2103
▁我们可以	-2104
是最	-2105
超级	-2106
到你	-2107
整天	-2108
线索	-2109
这项	-2110
受害者	-2111
家族	-2112
士兵	-2113
还会	-2114
台湾	-2115
为何	-2116
暴力	-2117
。。。	-2118
工作的	-2119
见面	-2120
接触	-2121
问题的	-2122
我和	-2123
行政	-2124
小组	-2125
地位	-2126
▁干	-2127
往往	-2128
失踪	-2129
配有	-2130
▁波	-2131
妇女	-2132
的国家	-2133
想想	-2134
差点	-2135
很久	-2136
▁出	-2137
该死的	-2138
就这样	-2139
即便	-2140
太好了	-2141
产业	-2142
尔夫	-2143
类的	-2144
失去了	-2145
▁你只是	-2146
也在	-2147
美国人	-2148
紧急	-2149
结合	-2150
冲突	-2151
角度	-2152
因为你	-2153
▁你真的	-2154
平均	-2155
做到	-2156
的特	-2157
等待	-2158
▁得	-2159
调整	-2160
找个	-2161
强烈	-2162
在地	-2163
%,	-2164
发生了什么	-2165
▁提供	-2166
▁你必须	-2167
原则	-2168
评论	-2169
▁把他	-2170
知道了	-2171
基督	-2172
特的	-2173
彻底	-2174
见到你	-2175
情报	-2176
上有	-2177
方面的	-2178
居民	-2179
恐怕	-2180
水果	-2181
连接	-2182
准备好了	-2183
▁当然了	-2184
我一	-2185
联合国	-2186
博物	-2187
很棒	-2188
愚蠢	-2189
分享	-2190
尔的	-2191
微波	-2192
▁接下来	-2193
缺乏	-2194
▁我真的	-2195
这场	-2196
上班	-2197
一遍	-2198
法的	-2199
革命	-2200
同性恋	-2201
赢得	-2202
ed	-2203
炸弹	-2204
立刻	-2205
知道你	-2206
安静	-2207
购物	-2208
相对	-2209
沙发	-2210
的机会	-2211
手段	-2212
期待	-2213
庆祝	-2214
▁自	-2215
不少	-2216
尊重	-2217
▁以及	-2218
吃了	-2219
im	-2220
就不	-2221
对方	-2222
胜利	-2223
从而	-2224
无线	-2225
冒险	-2226
年轻人	-2227
投入	-2228
细节	-2229
主席	-2230
工人	-2231
情况下	-2232
逮捕	-2233
▁我们已经	-2234
那天	-2235
谈判	-2236
▁有时候	-2237
随便	-2238
寻求	-2239
爱情	-2240
我自己	-2241
跟她	-2242
举行	-2243
原谅	-2244
商务	-2245
斯科	-2246
兰克	-2247
靠近	-2248
视频	-2249
打击	-2250
博物馆	-2251
更为	-2252
的女人	-2253
▁天哪	-2254
左右	-2255
被人	-2256
us	-2257
计算机	-2258
▁少	-2259
社区	-2260
天啊	-2261
▁随着	-2262
利润	-2263
跟踪	-2264
每次	-2265
居然	-2266
之外	-2267
你没	-2268
也可以	-2269
吃的	-2270
▁我做	-2271
▁我告诉	-2272
去做	-2273
才会	-2274
▁加	-2275
花了	-2276
不上	-2277
用了	-2278
▁而且	-2279
指挥	-2280
谈话	-2281
仔细	-2282
的孩子	-2283
相反	-2284
抗议	-2285
▁注意	-2286
▁有时	-2287
保守	-2288
千万	-2289
你现在	-2290
方便	-2291
▁却	-2292
哪个	-2293
什么的	-2294
喜欢的	-2295
动机	-2296
过去的	-2297
▁很高兴	-2298
心里	-2299
闭嘴	-2300
▁结果	-2301
▁我们现在	-2302
ip	-2303
正如	-2304
愤怒	-2305
▁一直	-2306
从来没有	-2307
释放	-2308
单独	-2309
年龄	-2310
愉快	-2311
本身	-2312
的感觉	-2313
气候	-2314
▁在这	-2315
and	-2316
▁去年	-2317
最大	-2318
去吧	-2319
到我	-2320
模型	-2321
的前	-2322
优势	-2323
出版	-2324
财富	-2325
▁要	-2326
犹太	-2327
关闭	-2328
▁医生	-2329
一致	-2330
▁我应该	-2331
下来的	-2332
广泛	-2333
麦克	-2334
我只	-2335
请求	-2336
预算	-2337
不足	-2338
激动	-2339
污染	-2340
喝酒	-2341
留在	-2342
几年	-2343
陷入	-2344
▁就在	-2345
不去	-2346
移民	-2347
教学	-2348
事业	-2349
森林	-2350
▁你已经	-2351
领导人	-2352
▁我的意思是	-2353
评估	-2354
伙伴	-2355
那么多	-2356
满意	-2357
给你的	-2358
▁地	-2359
不知	-2360
的确	-2361
▁我都	-2362
伟大的	-2363
黑暗	-2364
▁p	-2365
对待	-2366
转移	-2367
ter	-2368
70	-2369
最高	-2370
的海	-2371
床上	-2372
维持	-2373
▁我觉得你	-2374
好处	-2375
点什么	-2376
了他的	-2377
慢慢	-2378
▁当我们	-2379
可以在	-2380
▁是不是	-2381
▁不好意思	-2382
改善	-2383
自身	-2384
找不到	-2385
国会	-2386
相互	-2387
旅馆	-2388
创新	-2389
厉害	-2390
工资	-2391
伊朗	-2392
可怜	-2393
▁奥	-2394
每年	-2395
▁因为她	-2396
谈论	-2397
ing	-2398
不出	-2399
想过	-2400
访问	-2401
抱怨	-2402
了她	-2403
怀孕	-2404
四个	-2405
人生	-2406
期的	-2407
▁到	-2408
你觉得	-2409
2010	-2410
▁所有的	-2411
▁对不起	-2412
本来	-2413
斯的	-2414
你和	-2415
也不知道	-2416
监视	-2417
符合	-2418
韩国	-2419
平衡	-2420
把他们	-2421
基地	-2422
没问题	-2423
90	-2424
体验	-2425
再来	-2426
平板	-2427
严格	-2428
得到了	-2429
事务	-2430
遗憾	-2431
前的	-2432
官方	-2433
做得	-2434
利率	-2435
共和党	-2436
微波炉	-2437
那就是	-2438
鼓励	-2439
id	-2440
玻璃	-2441
统治	-2442
白痴	-2443
事故	-2444
巴黎	-2445
性感	-2446
老爸	-2447
信心	-2448
▁拉	-2449
跟着	-2450
它是	-2451
高速公路	-2452
很少	-2453
▁我想要	-2454
说法	-2455
▁如果你想	-2456
杀死	-2457
姐姐	-2458
ion	-2459
综合	-2460
观众	-2461
收益	-2462
一旦	-2463
丰富	-2464
度的	-2465
点儿	-2466
不够	-2467
对象	-2468
?!	-2469
尔德	-2470
一切都	-2471
记住	-2472
如今	-2473
阿富	-2474
拯救	-2475
我们应该	-2476
适应	-2477
阿富汗	-2478
司机	-2479
▁他想	-2480
案件	-2481
知道吗	-2482
大型	-2483
离婚	-2484
说我	-2485
敌人	-2486
味道	-2487
十年	-2488
▁但这	-2489
信仰	-2490
▁我听	-2491
告诉我们	-2492
皮肤	-2493
两次	-2494
▁后来	-2495
预计	-2496
2008	-2497
▁第	-2498
▁开	-2499
写的	-2500
▁宝贝	-2501
政府的	-2502
这边	-2503
承担	-2504
要做	-2505
阿尔	-2506
背景	-2507
一会儿	-2508
对了	-2509
也不是	-2510
掌握	-2511
▁其他	-2512
是你的	-2513
▁c	-2514
一辆	-2515
什么意思	-2516
▁泰	-2517
给你们	-2518
▁但如果	-2519
代价	-2520
▁她在	-2521
看了	-2522
▁突然	-2523
为什么不	-2524
▁其中	-2525
轻松	-2526
你所	-2527
交流	-2528
出售	-2529
当我	-2530
▁太好了	-2531
高中	-2532
浴缸	-2533
究竟	-2534
这里的	-2535
买了	-2536
推动	-2537
社交	-2538
500	-2539
包含	-2540
失业	-2541
依赖	-2542
把这个	-2543
明确	-2544
男朋友	-2545
埃及	-2546
概念	-2547
民主党	-2548
杀手	-2549
图书	-2550
明白了	-2551
去的	-2552
明星	-2553
印象	-2554
孩子的	-2555
公里	-2556
生存	-2557
找你	-2558
▁你对	-2559
他们是	-2560
顾客	-2561
利的	-2562
主义者	-2563
我对	-2564
▁其实	-2565
拿大	-2566
▁g	-2567
人和	-2568
带来的	-2569
地产	-2570
患者	-2571
仅仅是	-2572
▁到了	-2573
但他	-2574
澳大	-2575
看法	-2576
量的	-2577
拍摄	-2578
自行	-2579
大家都	-2580
的车	-2581
老兄	-2582
男性	-2583
▁好啦	-2584
的天	-2585
双方	-2586
▁你想要	-2587
看过	-2588
蛋糕	-2589
▁我刚刚	-2590
金属	-2591
发生的	-2592
你已经	-2593
澳大利亚	-2594
的发展	-2595
我还是	-2596
一半	-2597
录像	-2598
说服	-2599
教练	-2600
送到	-2601
▁不能	-2602
▁我们就	-2603
批准	-2604
州的	-2605
声明	-2606
浴室	-2607
普遍	-2608
告诉她	-2609
从来没	-2610
▁我又	-2611
充分	-2612
驾驶	-2613
随时	-2614
▁没有	-2615
感激	-2616
提供了	-2617
▁他有	-2618
很好的	-2619
ook	-2620
重大	-2621
▁很抱歉	-2622
牺牲	-2623
干吗	-2624
▁我们能	-2625
▁其	-2626
▁因为他	-2627
不敢	-2628
邻居	-2629
天哪	-2630
你知道吗	-2631
至于	-2632
声称	-2633
▁把你的	-2634
把你的	-2635
▁听起来	-2636
达成	-2637
▁我可不想	-2638
也很	-2639
▁我们应该	-2640
优秀	-2641
咨询	-2642
回报	-2643
得多	-2644
▁今年	-2645
▁你没有	-2646
这些人	-2647
威尔	-2648
在中国	-2649
我希望	-2650
网上	-2651
▁本文	-2652
都被	-2653
标志	-2654
▁唯一	-2655
它们的	-2656
做好	-2657
农业	-2658
和华	-2659
辈子	-2660
▁你就是	-2661
实话	-2662
这家	-2663
公布	-2664
我该	-2665
单位	-2666
▁她会	-2667
道路	-2668
判断	-2669
只会	-2670
颜色	-2671
一起去	-2672
娱乐	-2673
是由	-2674
离开了	-2675
▁但是你	-2676
检测	-2677
:00	-2678
▁我本来	-2679
准确	-2680
▁你也	-2681
太空	-2682
建造	-2683
立即	-2684
英尺	-2685
地点	-2686
ra	-2687
??	-2688
竟然	-2689
是我们	-2690
里有	-2691
来源	-2692
丹尼	-2693
▁感觉	-2694
的重要	-2695
耶稣	-2696
里克	-2697
▁我相信	-2698
▁否则	-2699
上周	-2700
给予	-2701
不然	-2702
在我们	-2703
▁许多	-2704
发出	-2705
搞定	-2706
无所	-2707
有一天	-2708
▁通过	-2709
▁昨天	-2710
明白吗	-2711
蛋白	-2712
见的	-2713
▁开始	-2714
带到	-2715
和一个	-2716
不住	-2717
▁以前	-2718
评价	-2719
命运	-2720
乐意	-2721
布鲁	-2722
海军	-2723
我才	-2724
无烟	-2725
注意到	-2726
脑袋	-2727
不安	-2728
讲话	-2729
故意	-2730
担忧	-2731
反正	-2732
练习	-2733
趋势	-2734
手指	-2735
克力	-2736
助于	-2737
我们需要	-2738
▁斯	-2739
起诉	-2740
顾问	-2741
形象	-2742
热情	-2743
安装	-2744
了很多	-2745
的家伙	-2746
你很	-2747
提升	-2748
的钱	-2749
加强	-2750
▁把它	-2751
削减	-2752
伊拉克	-2753
室内	-2754
发射	-2755
听我说	-2756
奶奶	-2757
想知道	-2758
再说	-2759
毁了	-2760
这个问题	-2761
和他的	-2762
的情况下	-2763
▁他不	-2764
在哪儿	-2765
种族	-2766
尼克	-2767
头上	-2768
玩意	-2769
我就是	-2770
伙计们	-2771
发言	-2772
▁我敢	-2773
上床	-2774
我应该	-2775
市场的	-2776
没关系	-2777
做法	-2778
收拾	-2779
制定	-2780
基斯坦	-2781
因为他	-2782
海岸	-2783
强调	-2784
会被	-2785
▁为什么不	-2786
具体	-2787
绑架	-2788
分之一	-2789
收集	-2790
的一种	-2791
▁弗	-2792
你这	-2793
没事的	-2794
提到	-2795
伊斯	-2796
伯特	-2797
得好	-2798
机制	-2799
他妈	-2800
期望	-2801
窗户	-2802
▁d	-2803
装置	-2804
运行	-2805
的主要	-2806
卡车	-2807
马克	-2808
▁你需要	-2809
在美国	-2810
▁他们是	-2811
冠军	-2812
▁给你	-2813
的老	-2814
退休	-2815
可不	-2816
在一	-2817
▁四	-2818
下一	-2819
受欢迎	-2820
怎么说	-2821
球队	-2822
也能	-2823
大学的	-2824
特征	-2825
我们不	-2826
看到的	-2827
血液	-2828
倾向	-2829
得太	-2830
个小时	-2831
叫什么	-2832
正确的	-2833
▁找到	-2834
上海	-2835
嫌疑	-2836
祈祷	-2837
▁不错	-2838
▁昨晚	-2839
的人们	-2840
严重的	-2841
尽快	-2842
的男人	-2843
女士们	-2844
我认为	-2845
你知道的	-2846
涉及	-2847
阅读	-2848
是个好	-2849
▁回	-2850
演出	-2851
演讲	-2852
▁例如	-2853
证实	-2854
启动	-2855
神秘	-2856
的关系	-2857
起来了	-2858
欣赏	-2859
顺利	-2860
▁整个	-2861
万一	-2862
惊讶	-2863
▁你以为	-2864
▁有什么	-2865
这是个	-2866
互相	-2867
混乱	-2868
起了	-2869
来这里	-2870
等一下	-2871
成年	-2872
尽力	-2873
耶和华	-2874
像你	-2875
不过是	-2876
表面	-2877
于是	-2878
证人	-2879
可不是	-2880
彼得	-2881
医学	-2882
的公司	-2883
▁我记得	-2884
惩罚	-2885
逐渐	-2886
傻瓜	-2887
档案	-2888
首次	-2889
21	-2890
对付	-2891
成立	-2892
▁S	-2893
赢了	-2894
入住	-2895
二十	-2896
财产	-2897
这份	-2898
▁算	-2899
巨大	-2900
街上	-2901
将军	-2902
你看	-2903
穿过	-2904
之下	-2905
不及	-2906
作家	-2907
同样的	-2908
▁我发誓	-2909
▁我给你	-2910
▁我正	-2911
应对	-2912
你不会	-2913
▁几乎	-2914
地下	-2915
这点	-2916
追踪	-2917
全世界	-2918
当你	-2919
发挥	-2920
灾难	-2921
统计	-2922
公民	-2923
▁f	-2924
上来	-2925
成熟	-2926
制造商	-2927
一定是	-2928
2009	-2929
漂亮的	-2930
om	-2931
探索	-2932
做了什么	-2933
阿拉伯	-2934
摄像	-2935
时光	-2936
高尔夫	-2937
分手	-2938
劳动	-2939
聚会	-2940
的故事	-2941
作出	-2942
促进	-2943
ap	-2944
前面	-2945
氧化	-2946
作者	-2947
打扰	-2948
▁如今	-2949
这个人	-2950
找我	-2951
事的	-2952
要我	-2953
▁早	-2954
▁我无法	-2955
▁相信我	-2956
叫做	-2957
考试	-2958
配备	-2959
区的	-2960
培养	-2961
可能性	-2962
这条	-2963
▁C	-2964
▁我以前	-2965
▁再见	-2966
克莱	-2967
成功的	-2968
农场	-2969
天的	-2970
▁距离	-2971
潜在	-2972
▁离开	-2973
地址	-2974
健身	-2975
便宜	-2976
▁乔	-2977
▁如果他们	-2978
.5	-2979
视为	-2980
▁我得	-2981
一把	-2982
of	-2983
教师	-2984
生态	-2985
简单的	-2986
不停	-2987
熟悉	-2988
乐队	-2989
承受	-2990
说是	-2991
了一些	-2992
大楼	-2993
上市	-2994
忍受	-2995
癌症	-2996
着你	-2997
给我的	-2998
带来了	-2999
▁我看到	-3000
男子	-3001
指导	-3002
▁十	-3003
上涨	-3004
之处	-3005
姆斯	-3006
摆脱	-3007
选手	-3008
32	-3009
贵的	-3010
巧克力	-3011
就不会	-3012
密码	-3013
很不	-3014
物理	-3015
最后一	-3016
无关	-3017
候选	-3018
的样子	-3019
两种	-3020
骄傲	-3021
核心	-3022
如果我	-3023
的了	-3024
▁我是个	-3025
摄影	-3026
所在	-3027
加拿大	-3028
的声音	-3029
假装	-3030
法案	-3031
咖啡机	-3032
带走	-3033
▁我要去	-3034
▁早上	-3035
做的事	-3036
大陆	-3037
抢劫	-3038
饮料	-3039
变成了	-3040
的朋友	-3041
追求	-3042
小说	-3043
迈克	-3044
爆发	-3045
衰退	-3046
者们	-3047
地区的	-3048
做个	-3049
心情	-3050
知道我	-3051
把我的	-3052
明的	-3053
成人	-3054
▁英国	-3055
扩大	-3056
艰难	-3057
许可	-3058
运输	-3059
下一个	-3060
主管	-3061
提供的	-3062
行吗	-3063
▁但她	-3064
指数	-3065
保留	-3066
同一	-3067
要么	-3068
不是我	-3069
爱尔	-3070
花园	-3071
注射	-3072
回忆	-3073
探员	-3074
ow	-3075
重点	-3076
▁你以前	-3077
证券	-3078
总理	-3079
我们现在	-3080
的行为	-3081
我吗	-3082
将其	-3083
渴望	-3084
都可以	-3085
协会	-3086
厕所	-3087
后果	-3088
▁史	-3089
巴西	-3090
指责	-3091
宝宝	-3092
没有任何	-3093
也不能	-3094
▁用	-3095
扮演	-3096
象征	-3097
完整	-3098
审判	-3099
宣传	-3100
在我的	-3101
▁可能是	-3102
传播	-3103
就有	-3104
南部	-3105
收费	-3106
反映	-3107
否认	-3108
晚了	-3109
海洋	-3110
宠物	-3111
没法	-3112
出现了	-3113
是这样	-3114
放到	-3115
▁尤其是	-3116
式的	-3117
和我们	-3118
不懂	-3119
黑人	-3120
担任	-3121
是从	-3122
找出	-3123
恶心	-3124
▁h	-3125
度假	-3126
卧室	-3127
一会	-3128
我想要	-3129
上次	-3130
▁2	-3131
专门	-3132
好事	-3133
怎么会	-3134
la	-3135
前往	-3136
玛丽	-3137
▁不要	-3138
▁您	-3139
▁完全	-3140
两年	-3141
程度上	-3142
晚安	-3143
暂时	-3144
孤独	-3145
浪漫	-3146
有时候	-3147
加州	-3148
很容易	-3149
警官	-3150
非法	-3151
去世	-3152
发现的	-3153
流动	-3154
假设	-3155
转变	-3156
▁刚	-3157
也不想	-3158
你说的	-3159
你需要	-3160
燃料	-3161
很重要	-3162
援助	-3163
采访	-3164
相信你	-3165
农民	-3166
▁科	-3167
点的	-3168
布莱	-3169
?”	-3170
便利	-3171
流行	-3172
的水	-3173
我们去	-3174
搭档	-3175
进口	-3176
钱的	-3177
游客	-3178
见你	-3179
特别是	-3180
夏天	-3181
中有	-3182
▁是个	-3183
向我	-3184
没有什么	-3185
足球	-3186
你这个	-3187
▁的	-3188
打了	-3189
爱尔兰	-3190
组成	-3191
黄金	-3192
▁对我	-3193
不清	-3194
▁吃	-3195
无聊	-3196
首歌	-3197
▁人们	-3198
财务	-3199
你对	-3200
天气	-3201
职位	-3202
的所有	-3203
详细	-3204
▁妈	-3205
房地产	-3206
运营	-3207
▁比如	-3208
▁如果你们	-3209
他有	-3210
就好	-3211
请你	-3212
os	-3213
▁听我说	-3214
定义	-3215
就业	-3216
ot	-3217
每一个	-3218
醒来	-3219
搞砸	-3220
▁他还	-3221
▁世界	-3222
▁他很	-3223
指纹	-3224
▁有些	-3225
的名字	-3226
接到	-3227
更有	-3228
引擎	-3229
亲自	-3230
▁使	-3231
护士	-3232
辆车	-3233
我真的	-3234
不久	-3235
分之	-3236
豪华	-3237
天然	-3238
症状	-3239
免费的	-3240
▁我们去	-3241
海滩	-3242
▁把我	-3243
代理	-3244
指望	-3245
▁日本	-3246
就这么	-3247
生长	-3248
领袖	-3249
资格	-3250
提议	-3251
▁我先	-3252
培训	-3253
空中	-3254
停车场	-3255
敏感	-3256
问我	-3257
ut	-3258
设置	-3259
叔叔	-3260
系统的	-3261
一周	-3262
ge	-3263
数学	-3264
造成的	-3265
足够的	-3266
li	-3267
台上	-3268
▁才	-3269
防止	-3270
实践	-3271
听到了	-3272
他不	-3273
▁所以我们	-3274
迹象	-3275
游泳池	-3276
认真	-3277
巴基斯坦	-3278
提出了	-3279
沿着	-3280
ers	-3281
清理	-3282
▁今	-3283
运用	-3284
别人的	-3285
▁德	-3286
跑了	-3287
▁在我们	-3288
桌子	-3289
开始了	-3290
阳光	-3291
大人	-3292
▁如果她	-3293
理想	-3294
她了	-3295
▁站	-3296
特大床	-3297
司法	-3298
成长	-3299
出租	-3300
智能	-3301
贝尔	-3302
餐馆	-3303
他要	-3304
混合	-3305
万美元	-3306
登记	-3307
▁感谢	-3308
我是个	-3309
文学	-3310
规划	-3311
那样的	-3312
▁哇	-3313
都不会	-3314
伤口	-3315
而不	-3316
维尔	-3317
鸡蛋	-3318
共产	-3319
ebook	-3320
勇敢	-3321
摘要	-3322
把这些	-3323
我看	-3324
就算	-3325
进步	-3326
从不	-3327
你必须	-3328
玩具	-3329
不错的	-3330
到这里	-3331
我们已经	-3332
武装	-3333
▁目前	-3334
保罗	-3335
按摩	-3336
合法	-3337
固定	-3338
的世界	-3339
能在	-3340
45	-3341
争议	-3342
团体	-3343
少年	-3344
等你	-3345
很大的	-3346
过度	-3347
美味	-3348
的信息	-3349
两张	-3350
比例	-3351
就没	-3352
老人	-3353
首席执行	-3354
例子	-3355
红色	-3356
▁我想我	-3357
临时	-3358
你不是	-3359
为此	-3360
星球	-3361
汤姆	-3362
▁必须	-3363
当中	-3364
华夫	-3365
未来的	-3366
你没有	-3367
··	-3368
日益	-3369
▁研究	-3370
acebook	-3371
▁贝斯特韦斯特	-3372
惊喜	-3373
些时候	-3374
自行车	-3375
为他	-3376
就行了	-3377
吸血	-3378
▁偷	-3379
创建	-3380
折磨	-3381
最佳	-3382
检察	-3383
报警	-3384
队伍	-3385
绿色	-3386
▁你又	-3387
▁他把	-3388
▁有点	-3389
戒指	-3390
诉讼	-3391
一大	-3392
电池	-3393
两位	-3394
牛奶	-3395
遭受	-3396
干了	-3397
开的	-3398
2011	-3399
应该是	-3400
好多	-3401
此同时	-3402
少数	-3403
广播	-3404
的路	-3405
我一直	-3406
成就	-3407
该公司	-3408
的手	-3409
也要	-3410
几次	-3411
什么了	-3412
的结果	-3413
过我	-3414
太棒了	-3415
石头	-3416
了这个	-3417
零售	-3418
对她	-3419
萨斯	-3420
图书馆	-3421
预期	-3422
晚饭	-3423
诊断	-3424
长大	-3425
参观	-3426
类型	-3427
你想要	-3428
议会	-3429
▁在这个	-3430
能不能	-3431
华夫饼	-3432
就是这样	-3433
真好	-3434
这就	-3435
重复	-3436
▁头	-3437
▁我可能	-3438
不好意思	-3439
带有	-3440
北部	-3441
35	-3442
央行	-3443
▁我只能	-3444
▁伙计们	-3445
在家	-3446
时尚	-3447
我必须	-3448
暗示	-3449
组合	-3450
显得	-3451
帮他	-3452
广场	-3453
ent	-3454
那个人	-3455
勇气	-3456
他是个	-3457
主题	-3458
所谓的	-3459
破产	-3460
▁t	-3461
我真	-3462
▁我被	-3463
不幸	-3464
生活的	-3465
花费	-3466
阶级	-3467
one	-3468
争论	-3469
奥运	-3470
球场	-3471
舞蹈	-3472
唱歌	-3473
笨蛋	-3474
以上	-3475
▁那些	-3476
丢了	-3477
▁我今天	-3478
华尔	-3479
智慧	-3480
物的	-3481
▁唔	-3482
对话	-3483
统一	-3484
行星	-3485
队员	-3486
举办	-3487
老鼠	-3488
▁如果你不	-3489
中最	-3490
做爱	-3491
西亚	-3492
铁路	-3493
▁最近	-3494
沃尔	-3495
装饰	-3496
过于	-3497
接着	-3498
很多人	-3499
ir	-3500
决策	-3501
求你	-3502
▁我要你	-3503
交换	-3504
图片	-3505
婊子	-3506
帽子	-3507
地震	-3508
▁你只要	-3509
▁戴	-3510
仪式	-3511
在了	-3512
更大的	-3513
▁我刚才	-3514
车上	-3515
两天	-3516
机关	-3517
头的	-3518
▁我告诉你	-3519
22	-3520
▁一点	-3521
制的	-3522
民众	-3523
▁我从没	-3524
你们俩	-3525
权的	-3526
发明	-3527
无辜	-3528
▁和	-3529
本地	-3530
推荐	-3531
同情	-3532
▁然后	-3533
技巧	-3534
论文	-3535
▁我发现	-3536
在大	-3537
注册	-3538
告诉他们	-3539
▁帮我	-3540
早晨	-3541
透露	-3542
也就是	-3543
将来	-3544
罪犯	-3545
美联	-3546
著名的	-3547
感觉到	-3548
偶尔	-3549
已经被	-3550
付出	-3551
成绩	-3552
一开始	-3553
道的	-3554
性和	-3555
激烈	-3556
加哥	-3557
效率	-3558
美好	-3559
说不	-3560
交给	-3561
芝加哥	-3562
税收	-3563
确信	-3564
▁你可以	-3565
你呢	-3566
▁我明白	-3567
争取	-3568
是要	-3569
赶紧	-3570
天堂	-3571
保障	-3572
原来	-3573
▁这一	-3574
行李	-3575
疯子	-3576
一个小	-3577
遭到	-3578
了我们	-3579
多少钱	-3580
导弹	-3581
差异	-3582
▁你不知道	-3583
一片	-3584
▁哪个	-3585
想起	-3586
从我	-3587
每个人都	-3588
单身	-3589
对我们	-3590
肯定会	-3591
抓到	-3592
加上	-3593
从事	-3594
伊斯兰	-3595
独自	-3596
▁我不喜欢	-3597
回应	-3598
监控	-3599
▁我该	-3600
完美的	-3601
分别	-3602
监督	-3603
看到你	-3604
作业	-3605
▁很明显	-3606
▁女	-3607
▁事实上	-3608
不像	-3609
我以为	-3610
有助于	-3611
崩溃	-3612
技能	-3613
直升	-3614
▁明	-3615
教训	-3616
重的	-3617
各国	-3618
提前	-3619
穆斯	-3620
莱坞	-3621
不如	-3622
异常	-3623
▁阿	-3624
▁不如	-3625
天使	-3626
圣诞节	-3627
平台	-3628
邪恶	-3629
夜晚	-3630
世界的	-3631
礼拜	-3632
在此	-3633
表情	-3634
你又	-3635
▁你该	-3636
▁就会	-3637
双人	-3638
把我们	-3639
我做	-3640
坐下	-3641
2007	-3642
我们不能	-3643
ec	-3644
塞尔	-3645
维护	-3646
选民	-3647
▁我将	-3648
精力	-3649
还可以	-3650
一人	-3651
补充	-3652
加油	-3653
事了	-3654
斯顿	-3655
注意力	-3656
地上	-3657
宽敞	-3658
说谎	-3659
一生	-3660
在线	-3661
尽量	-3662
美丽的	-3663
陌生	-3664
ia	-3665
▁我很抱歉	-3666
停下	-3667
接入	-3668
间的	-3669
美的	-3670
边缘	-3671
▁。	-3672
区别	-3673
早期	-3674
房间里	-3675
全面	-3676
奇迹	-3677
情感	-3678
议院	-3679
成为一个	-3680
远离	-3681
吸血鬼	-3682
聊天	-3683
▁w	-3684
欧元区	-3685
有限公司	-3686
我们走	-3687
不着	-3688
打个	-3689
信贷	-3690
营养	-3691
大卫	-3692
▁摘要	-3693
道理	-3694
▁把你	-3695
局的	-3696
慈善	-3697
教徒	-3698
是怎么	-3699
吸烟	-3700
之内	-3701
等我	-3702
手的	-3703
让它	-3704
▁他不是	-3705
当作	-3706
年纪	-3707
某人	-3708
▁上面	-3709
主人	-3710
内心	-3711
高度	-3712
的就是	-3713
▁我有点	-3714
公主	-3715
重要的是	-3716
23	-3717
吹风	-3718
擅长	-3719
古老	-3720
抛弃	-3721
ab	-3722
享用	-3723
一段时间	-3724
几个小时	-3725
服装	-3726
主义的	-3727
全力	-3728
物品	-3729
通讯	-3730
宁愿	-3731
这类	-3732
机器人	-3733
▁此外	-3734
贡献	-3735
198	-3736
之类的	-3737
相处	-3738
死去	-3739
▁政府	-3740
伤心	-3741
上学	-3742
▁但在	-3743
他还	-3744
说她	-3745
段时间	-3746
微笑	-3747
什么吗	-3748
清洁	-3749
永远不会	-3750
手里	-3751
纪录	-3752
▁我正在	-3753
》(	-3754
依靠	-3755
搜查	-3756
微软	-3757
罢了	-3758
乐观	-3759
而非	-3760
意的	-3761
遭遇	-3762
一件事	-3763
的一天	-3764
我们必须	-3765
将是	-3766
连续	-3767
爱上	-3768
背后	-3769
男友	-3770
隐藏	-3771
工作了	-3772
违反	-3773
已经在	-3774
你该	-3775
带上	-3776
深入	-3777
只是个	-3778
运动员	-3779
头脑	-3780
嫌犯	-3781
那一	-3782
▁任何	-3783
▁冷静	-3784
去哪	-3785
他很	-3786
编辑	-3787
av	-3788
比我	-3789
疑问	-3790
深刻	-3791
回来的	-3792
点东西	-3793
裤子	-3794
新兴	-3795
▁兄弟	-3796
首席执行官	-3797
iv	-3798
问问	-3799
不应该	-3800
经济学家	-3801
笔记	-3802
电力	-3803
精彩	-3804
损害	-3805
马上就	-3806
下次	-3807
有机会	-3808
▁南	-3809
来着	-3810
魅力	-3811
分配	-3812
地狱	-3813
度过	-3814
睡着	-3815
的计划	-3816
肌肉	-3817
腐败	-3818
地图	-3819
耳朵	-3820
对其	-3821
市长	-3822
市中心	-3823
我又	-3824
辩护	-3825
到来	-3826
有过	-3827
发展的	-3828
▁咱	-3829
▁刚才	-3830
▁你要是	-3831
传统的	-3832
极端	-3833
协助	-3834
2000	-3835
周一	-3836
的数据	-3837
动的	-3838
房屋	-3839
球员	-3840
▁那个	-3841
▁住	-3842
临床	-3843
她就	-3844
间谍	-3845
穆斯林	-3846
为您	-3847
舞会	-3848
你都	-3849
▁还有	-3850
帝国	-3851
我的朋友	-3852
日的	-3853
起来的	-3854
尴尬	-3855
这家伙	-3856
发行	-3857
玉米	-3858
这件	-3859
认为是	-3860
杀了他	-3861
强大的	-3862
世上	-3863
国有	-3864
把自己	-3865
▁准备好	-3866
笑话	-3867
获取	-3868
美洲	-3869
▁她要	-3870
盯着	-3871
哪些	-3872
听听	-3873
分开	-3874
走的	-3875
▁包括	-3876
发生在	-3877
的心	-3878
被杀	-3879
ay	-3880
我说的	-3881
▁我听到	-3882
呆在	-3883
国民	-3884
看的	-3885
展开	-3886
大幅	-3887
可靠	-3888
▁有没有	-3889
上午	-3890
会计	-3891
是真的	-3892
▁我可不	-3893
断了	-3894
华尔街	-3895
动脉	-3896
Fi	-3897
▁一位	-3898
▁高	-3899
富有	-3900
手上	-3901
我也是	-3902
矛盾	-3903
▁也许	-3904
卡尔	-3905
海外	-3906
把它们	-3907
300	-3908
他人	-3909
斗争	-3910
▁我做了	-3911
打破	-3912
▁你这个	-3913
博客	-3914
地说	-3915
这会	-3916
街道	-3917
暴露	-3918
▁想想	-3919
几分钟	-3920
叫你	-3921
别再	-3922
布什	-3923
自信	-3924
▁学校	-3925
▁也不	-3926
抵押	-3927
陪审	-3928
荣幸	-3929
平板电视	-3930
▁B	-3931
退出	-3932
账户	-3933
▁他就	-3934
▁他要	-3935
▁喝	-3936
规矩	-3937
信用卡	-3938
英格兰	-3939
日常	-3940
棒的	-3941
教会	-3942
正好	-3943
现在的	-3944
ig	-3945
营业范围	-3946
谨慎	-3947
▁那么	-3948
这种事	-3949
沙漠	-3950
西部	-3951
走到	-3952
com	-3953
士顿	-3954
▁似乎	-3955
▁你可	-3956
脸上	-3957
▁别再	-3958
你就是	-3959
远的	-3960
克林	-3961
认真的	-3962
▁我根本	-3963
股东	-3964
候选人	-3965
Wi	-3966
元素	-3967
斯先生	-3968
恭喜	-3969
先生们	-3970
1.	-3971
居住	-3972
不会有	-3973
立场	-3974
▁各位	-3975
▁但他们	-3976
▁假如	-3977
途径	-3978
后悔	-3979
的价格	-3980
通用	-3981
分析师	-3982
你是个	-3983
▁看上去	-3984
十二	-3985
股市	-3986
白人	-3987
脑子	-3988
当事	-3989
▁酒店	-3990
下跌	-3991
满了	-3992
边的	-3993
▁但现在	-3994
算是	-3995
可爱的	-3996
▁他妈的	-3997
上一	-3998
以下	-3999
的能力	-4000
负担	-4001
辞职	-4002
的支持	-4003
首都	-4004
▁稍	-4005
机械	-4006
足以	-4007
葡萄酒	-4008
午饭	-4009
困境	-4010
在想	-4011
ul	-4012
开支	-4013
的风险	-4014
▁我在想	-4015
世界上最	-4016
分离	-4017
发达	-4018
致命	-4019
什么都没	-4020
尼斯	-4021
支出	-4022
洗手	-4023
车的	-4024
人民币	-4025
各个	-4026
外星	-4027
比你	-4028
进的	-4029
离开这里	-4030
马斯	-4031
▁我拿	-4032
强迫	-4033
无人	-4034
什么呢	-4035
▁即便	-4036
强的	-4037
▁最好	-4038
膨胀	-4039
质疑	-4040
平静	-4041
知的	-4042
▁东	-4043
到这	-4044
队长	-4045
了这	-4046
ard	-4047
年轻的	-4048
版本	-4049
他已经	-4050
持有	-4051
不一样	-4052
复苏	-4053
清醒	-4054
血管	-4055
义务	-4056
队的	-4057
大声	-4058
两个人	-4059
喜欢你	-4060
过去了	-4061
路易	-4062
魔法	-4063
使用的	-4064
解雇	-4065
大量的	-4066
▁给	-4067
吹风机	-4068
继承	-4069
现在就	-4070
运作	-4071
随后	-4072
▁你为什么不	-4073
以便	-4074
了一种	-4075
始终	-4076
音机	-4077
太平	-4078
更大	-4079
你喜欢	-4080
幻想	-4081
错过	-4082
就好了	-4083
▁想要	-4084
大街	-4085
立法	-4086
回家了	-4087
嫉妒	-4088
成为了	-4089
怎么样了	-4090
病了	-4091
对我来说	-4092
温度	-4093
翻译	-4094
运气	-4095
▁我向	-4096
在你的	-4097
排放	-4098
27	-4099
遵守	-4100
职责	-4101
安全的	-4102
▁3	-4103
在她	-4104
ind	-4105
知道他	-4106
结婚了	-4107
▁我们只是	-4108
▁尤其	-4109
总会	-4110
发电	-4111
开门	-4112
▁一般	-4113
的书	-4114
封信	-4115
欺骗	-4116
艺术家	-4117
尽可能	-4118
让你们	-4119
总部	-4120
▁在这里	-4121
将要	-4122
类似的	-4123
国防	-4124
睡眠	-4125
观念	-4126
门口	-4127
每一	-4128
效应	-4129
支票	-4130
经济增长	-4131
▁挺	-4132
秘书	-4133
▁你这	-4134
瑞士	-4135
第四	-4136
▁他现在	-4137
对抗	-4138
思维	-4139
替代	-4140
你一	-4141
鼻子	-4142
因为他们	-4143
▁米	-4144
老大	-4145
被捕	-4146
背叛	-4147
▁k	-4148
停下来	-4149
利比亚	-4150
获得了	-4151
一群	-4152
▁对啊	-4153
签署	-4154
▁你一定	-4155
爱好	-4156
首相	-4157
眼镜	-4158
▁他对	-4159
有一些	-4160
规范	-4161
最初	-4162
▁除了	-4163
的照片	-4164
这是一个	-4165
毁灭	-4166
上述	-4167
被告	-4168
我把	-4169
液晶	-4170
免疫	-4171
▁他已经	-4172
▁人	-4173
他想	-4174
保存	-4175
几周	-4176
场所	-4177
本周	-4178
远点	-4179
很可能	-4180
▁我不明白	-4181
怪物	-4182
一个月	-4183
姐妹	-4184
穿上	-4185
▁显然	-4186
的基础	-4187
当前	-4188
情人	-4189
2012	-4190
循环	-4191
生活中	-4192
久的	-4193
饮食	-4194
gle	-4195
留下来	-4196
你真	-4197
我再	-4198
女友	-4199
整体	-4200
▁原来	-4201
下来了	-4202
福利	-4203
man	-4204
我很抱歉	-4205
▁一种	-4206
美联储	-4207
增强	-4208
大使	-4209
出于	-4210
方的	-4211
名为	-4212
酸奶	-4213
有线	-4214
推出	-4215
整理	-4216
▁我也是	-4217
扩张	-4218
痕迹	-4219
动了	-4220
及时	-4221
这不	-4222
得以	-4223
▁或	-4224
任何事	-4225
ation	-4226
死于	-4227
转向	-4228
你为什么	-4229
看我	-4230
当局	-4231
的美国	-4232
审查	-4233
▁我可没	-4234
参议员	-4235
有多少	-4236
▁我当时	-4237
牧师	-4238
很有趣	-4239
等到	-4240
国外	-4241
夫妇	-4242
季度	-4243
诚实	-4244
的第一	-4245
条款	-4246
遗传	-4247
▁上周	-4248
直升机	-4249
▁她说她	-4250
看起来很	-4251
不见了	-4252
点了	-4253
这么想	-4254
▁A	-4255
▁将	-4256
三年	-4257
总裁	-4258
杀了你	-4259
什么东西	-4260
大道	-4261
爵士	-4262
改变了	-4263
▁他不会	-4264
抑制	-4265
模特	-4266
▁别管	-4267
心脏病	-4268
天才	-4269
▁M	-4270
泡沫	-4271
希望你	-4272
买的	-4273
被迫	-4274
难过	-4275
让自己	-4276
加速	-4277
左转	-4278
好人	-4279
应付	-4280
股份	-4281
存在的	-4282
农村	-4283
繁荣	-4284
产生的	-4285
清晰	-4286
▁传	-4287
屏幕	-4288
会发生	-4289
组织的	-4290
丰盛	-4291
青年	-4292
拿走	-4293
谎言	-4294
)、	-4295
良好	-4296
船上	-4297
麻烦了	-4298
重建	-4299
忠诚	-4300
▁光	-4301
分布	-4302
相机	-4303
女生	-4304
装备	-4305
完成了	-4306
右转	-4307
图像	-4308
工程师	-4309
的女孩	-4310
他能	-4311
奴隶	-4312
创作	-4313
个小	-4314
▁我儿子	-4315
▁P	-4316
ob	-4317
苏联	-4318
部落	-4319
人数	-4320
冲击	-4321
▁你不想	-4322
的消息	-4323
分裂	-4324
的想法	-4325
融资	-4326
▁我们知道	-4327
佛罗	-4328
汇率	-4329
频道	-4330
覆盖	-4331
了么	-4332
就没有	-4333
的政治	-4334
▁你妈妈	-4335
妓女	-4336
家长	-4337
纤维	-4338
威廉	-4339
仍在	-4340
ne	-4341
电梯	-4342
出发地	-4343
并未	-4344
荷兰	-4345
我给你	-4346
何时	-4347
保安	-4348
▁它是	-4349
主任	-4350
我要去	-4351
▁但是他	-4352
王子	-4353
董事会	-4354
▁你今天	-4355
加斯	-4356
出去了	-4357
,”	-4358
震惊	-4359
▁最终	-4360
奥斯	-4361
密的	-4362
尚未	-4363
▁我父亲	-4364
修改	-4365
文明	-4366
扫描	-4367
了一下	-4368
辐射	-4369
透了	-4370
两人	-4371
是她	-4372
动手	-4373
哥伦	-4374
▁与此同时	-4375
变态	-4376
日期	-4377
显著	-4378
求你了	-4379
来这	-4380
的热	-4381
你那	-4382
取代	-4383
的名	-4384
过分	-4385
你就会	-4386
土耳	-4387
”(	-4388
▁恐怕	-4389
发言人	-4390
这是我的	-4391
▁我爱	-4392
▁后	-4393
营销	-4394
过他	-4395
观看	-4396
原本	-4397
和他们	-4398
说的是	-4399
附近的	-4400
▁我准备	-4401
大众	-4402
有利	-4403
克里斯	-4404
的目标	-4405
那么做	-4406
竞争对手	-4407
▁我妈妈	-4408
把枪	-4409
白宫	-4410
人家	-4411
依据	-4412
▁总统	-4413
接下来	-4414
银行的	-4415
借口	-4416
质的	-4417
受不了	-4418
土耳其	-4419
▁我们还	-4420
会很	-4421
包装	-4422
强大	-4423
这是我	-4424
实行	-4425
看着我	-4426
剩下	-4427
打赌	-4428
为自己	-4429
生活在	-4430
▁把她	-4431
得出	-4432
进行的	-4433
通胀	-4434
26	-4435
寻常	-4436
把那	-4437
▁你还是	-4438
前进	-4439
▁晚上	-4440
我们该	-4441
经纪	-4442
▁一起	-4443
他对	-4444
▁我很高兴	-4445
把钱	-4446
短信	-4447
尊敬	-4448
马里	-4449
的日子	-4450
▁告诉他	-4451
▁洛	-4452
▁古	-4453
一部分	-4454
当的	-4455
成果	-4456
学位	-4457
完善	-4458
生涯	-4459
协调	-4460
吃惊	-4461
定位	-4462
年度	-4463
全都	-4464
是想	-4465
▁法	-4466
起的	-4467
逃跑	-4468
开展	-4469
▁帮	-4470
英镑	-4471
良好的	-4472
em	-4473
▁《	-4474
能否	-4475
短期	-4476
同志	-4477
目击	-4478
oogle	-4479
▁你看到	-4480
▁手	-4481
相似	-4482
环保	-4483
过得	-4484
得对	-4485
摩托	-4486
并在	-4487
授权	-4488
我爱	-4489
辩论	-4490
▁因	-4491
德里	-4492
骗子	-4493
这座	-4494
这张	-4495
▁你们要	-4496
▁告诉你	-4497
他们都	-4498
葬礼	-4499
▁在此	-4500
认识你	-4501
忽视	-4502
28	-4503
经济的	-4504
所需	-4505
密切	-4506
是对	-4507
果汁	-4508
测量	-4509
年后	-4510
---	-4511
伟大	-4512
口袋	-4513
那不是	-4514
印第	-4515
戏剧	-4516
检验	-4517
聚集	-4518
能找到	-4519
器官	-4520
街区	-4521
以外	-4522
宣称	-4523
明治	-4524
有钱	-4525
旨在	-4526
时机	-4527
理念	-4528
白色	-4529
▁六	-4530
▁福	-4531
人群	-4532
笔钱	-4533
政党	-4534
悲伤	-4535
航班	-4536
形态	-4537
播放	-4538
是如何	-4539
舒适的	-4540
橄榄	-4541
去过	-4542
▁你自己	-4543
是被	-4544
乘客	-4545
决心	-4546
大规模	-4547
乡村	-4548
干活	-4549
不会再	-4550
检察官	-4551
平等	-4552
▁上次	-4553
复杂的	-4554
就得	-4555
▁在那	-4556
想去	-4557
最新	-4558
太多了	-4559
外科	-4560
主动	-4561
十字	-4562
处的	-4563
恶魔	-4564
消防	-4565
跟我们	-4566
废话	-4567
基本上	-4568
这样的人	-4569
好莱坞	-4570
朋友们	-4571
板上	-4572
之所以	-4573
金融危机	-4574
哲学	-4575
呼吁	-4576
特点	-4577
自豪	-4578
危险的	-4579
公正	-4580
合伙	-4581
▁在我看来	-4582
▁她很	-4583
所有人都	-4584
代码	-4585
我保证	-4586
得到的	-4587
杀了我	-4588
▁你什么时候	-4589
▁北	-4590
但你	-4591
肿瘤	-4592
在他的	-4593
是什么意思	-4594
座位	-4595
相关的	-4596
交谈	-4597
入侵	-4598
用品	-4599
错误的	-4600
ak	-4601
ub	-4602
告诉你的	-4603
却是	-4604
别担心	-4605
毕竟	-4606
被称为	-4607
学者	-4608
收音机	-4609
回头	-4610
沟通	-4611
art	-4612
助理	-4613
▁当他	-4614
预防	-4615
精神病	-4616
好啊	-4617
最低	-4618
多个	-4619
报复	-4620
的性	-4621
同学	-4622
打败	-4623
文字	-4624
的一次	-4625
美女	-4626
设立	-4627
▁我决定	-4628
沮丧	-4629
路线	-4630
为我们	-4631
但这	-4632
我刚	-4633
明年	-4634
,000	-4635
▁托	-4636
▁第二	-4637
需要的	-4638
▁of	-4639
远远	-4640
手下	-4641
每周	-4642
走进	-4643
一系列	-4644
197	-4645
的事实	-4646
指示	-4647
走向	-4648
小时候	-4649
我怎么	-4650
主教	-4651
赤字	-4652
着的	-4653
没事吧	-4654
补偿	-4655
脾气	-4656
要在	-4657
着他	-4658
▁我到	-4659
um	-4660
有些人	-4661
的人都	-4662
群体	-4663
好消息	-4664
影片	-4665
脆弱	-4666
学术	-4667
▁就这样	-4668
把手	-4669
口气	-4670
42	-4671
你认为	-4672
▁印度	-4673
写了	-4674
骨头	-4675
不明白	-4676
现在是	-4677
器的	-4678
重视	-4679
很不错	-4680
斯基	-4681
话题	-4682
▁由	-4683
已被	-4684
升级	-4685
带了	-4686
仓库	-4687
碰到	-4688
美元的	-4689
苏格兰	-4690
印第安	-4691
▁派	-4692
侦探	-4693
塑料	-4694
脂肪	-4695
加坡	-4696
▁哪里	-4697
的那样	-4698
干掉	-4699
迟到了	-4700
说出	-4701
▁若	-4702
他也	-4703
俄国	-4704
委托	-4705
添加	-4706
饼干	-4707
吸收	-4708
极其	-4709
▁为何	-4710
黑色	-4711
房子里	-4712
厌倦	-4713
复制	-4714
设法	-4715
▁马	-4716
▁他没有	-4717
变的	-4718
就是个	-4719
hone	-4720
现状	-4721
镜头	-4722
▁我想知道	-4723
37	-4724
含量	-4725
场的	-4726
至今	-4727
有问题	-4728
▁谁	-4729
入了	-4730
货物	-4731
来这儿	-4732
一部	-4733
一点点	-4734
中国人	-4735
将被	-4736
听说过	-4737
女子	-4738
了他们	-4739
一座	-4740
友好	-4741
带他	-4742
▁它的	-4743
那些人	-4744
ag	-4745
物种	-4746
▁我看见	-4747
不必	-4748
我猜	-4749
激情	-4750
进程	-4751
锻炼	-4752
不是你	-4753
魔鬼	-4754
带你	-4755
范围内	-4756
什么事了	-4757
子了	-4758
推进	-4759
州际	-4760
拉德	-4761
就像是	-4762
众多	-4763
出色	-4764
所作	-4765
四处	-4766
反抗	-4767
▁这里	-4768
也许会	-4769
▁对我来说	-4770
我正	-4771
见了	-4772
人们的	-4773
困扰	-4774
各地	-4775
设计的	-4776
愿望	-4777
叙利亚	-4778
同一个	-4779
特兰	-4780
钻石	-4781
不愿	-4782
想着	-4783
般的	-4784
强奸	-4785
▁以后	-4786
如果我们	-4787
oc	-4788
消除	-4789
累了	-4790
别这样	-4791
火箭	-4792
最后的	-4793
五年	-4794
越南	-4795
▁公司	-4796
模拟	-4797
他们就	-4798
up	-4799
你做	-4800
尔顿	-4801
构成	-4802
解放	-4803
▁这间	-4804
当成	-4805
毫不	-4806
边境	-4807
储备	-4808
死者	-4809
共和国	-4810
▁当她	-4811
▁我们将	-4812
形势	-4813
▁他没	-4814
当事人	-4815
各自	-4816
正义	-4817
细菌	-4818
返回	-4819
ber	-4820
抵达	-4821
考虑到	-4822
最后一次	-4823
南方	-4824
提交	-4825
移植	-4826
地面	-4827
城里	-4828
▁德国	-4829
对你的	-4830
来过	-4831
领先	-4832
消失了	-4833
情形	-4834
高管	-4835
变了	-4836
听过	-4837
礼貌	-4838
爱我	-4839
牛仔	-4840
▁首先	-4841
小型	-4842
三明治	-4843
会员	-4844
快走	-4845
洗衣	-4846
读者	-4847
神奇	-4848
轨道	-4849
保险箱	-4850
所说的	-4851
父亲的	-4852
不愿意	-4853
成分	-4854
拥抱	-4855
损伤	-4856
比尔	-4857
浏览	-4858
全身	-4859
指标	-4860
签名	-4861
受到了	-4862
的是什么	-4863
就行	-4864
有用	-4865
金钱	-4866
疼痛	-4867
雇员	-4868
▁所以他	-4869
制服	-4870
合并	-4871
安慰	-4872
火山	-4873
最多	-4874
搞砸了	-4875
携带	-4876
联络	-4877
突破	-4878
有效的	-4879
▁我说了	-4880
自助	-4881
客气	-4882
杀害	-4883
▁如果是	-4884
发了	-4885
带她	-4886
更新	-4887
更高	-4888
没了	-4889
面试	-4890
交叉	-4891
我国	-4892
手中	-4893
▁我讨厌	-4894
叫他	-4895
进化	-4896
很抱歉	-4897
特别的	-4898
的一项	-4899
一支	-4900
▁正如	-4901
必要的	-4902
我被	-4903
我们将	-4904
许多人	-4905
▁星期	-4906
像我	-4907
▁回到	-4908
的电话	-4909
丽莎	-4910
▁我自己	-4911
的一样	-4912
▁如果有	-4913
切尔	-4914
玫瑰	-4915
明智	-4916
车辆	-4917
有意思	-4918
一间	-4919
室里	-4920
爷爷	-4921
▁罗	-4922
的学生	-4923
空调	-4924
▁每个	-4925
里达	-4926
▁5	-4927
幽默	-4928
▁一切都	-4929
案的	-4930
经济体	-4931
陪审团	-4932
▁多谢	-4933
▁或是	-4934
一些人	-4935
大麻	-4936
季节	-4937
拍卖	-4938
逻辑	-4939
那你	-4940
我正在	-4941
▁我肯定	-4942
▁尼	-4943
还有什么	-4944
护理	-4945
水的	-4946
喝了	-4947
只有一个	-4948
汉堡	-4949
脖子	-4950
相同的	-4951
还活着	-4952
前景	-4953
▁对你	-4954
淋浴	-4955
▁帕	-4956
体内	-4957
企业的	-4958
下去了	-4959
克萨斯	-4960
去哪儿	-4961
犹太人	-4962
那家伙	-4963
摧毁	-4964
这很	-4965
两国	-4966
玩的	-4967
找到的	-4968
2006	-4969
之地	-4970
写作	-4971
大会	-4972
但是我	-4973
跟他们	-4974
意志	-4975
风暴	-4976
吉尔	-4977
自己在	-4978
洗澡	-4979
说说	-4980
贫困	-4981
过敏	-4982
▁是因为	-4983
无数	-4984
蔬菜	-4985
无障碍	-4986
坐着	-4987
出席	-4988
比利	-4989
识别	-4990
倒了	-4991
演奏	-4992
▁你别	-4993
▁是谁	-4994
宪法	-4995
风味	-4996
▁每年	-4997
而来	-4998
一台	-4999
团结	-5000
燃烧	-5001
飞船	-5002
▁但是我们	-5003
隐瞒	-5004
▁我查	-5005
历史上	-5006
未能	-5007
▁他知道	-5008
▁像你	-5009
▁数	-5010
为人	-5011
迫使	-5012
有机	-5013
提起	-5014
雇佣	-5015
▁我就知道	-5016
▁我觉得我	-5017
!!	-5018
有一张	-5019
严肃	-5020
椅子	-5021
乐趣	-5022
圣经	-5023
舞台	-5024
鞋子	-5025
▁你看起来	-5026
周五	-5027
小伙	-5028
此事	-5029
他吗	-5030
则是	-5031
快的	-5032
原始	-5033
城镇	-5034
说的话	-5035
加利	-5036
看你	-5037
▁奥巴马	-5038
代替	-5039
低于	-5040
战士	-5041
见我	-5042
钱包	-5043
主持	-5044
布朗	-5045
指定	-5046
做一个	-5047
一句	-5048
州际公路	-5049
专利	-5050
付钱	-5051
恋爱	-5052
牙齿	-5053
29	-5054
五个	-5055
▁l	-5056
思议	-5057
400	-5058
所以我	-5059
美好的	-5060
好么	-5061
熨斗	-5062
缺陷	-5063
▁为什么你	-5064
ie	-5065
展现	-5066
探测	-5067
作战	-5068
政客	-5069
op	-5070
秒钟	-5071
交往	-5072
出门	-5073
底下	-5074
喝一杯	-5075
太平洋	-5076
优先	-5077
真是太	-5078
▁你刚才	-5079
警局	-5080
▁据说	-5081
之为	-5082
维亚	-5083
▁干嘛	-5084
▁现在你	-5085
你们两个	-5086
家具	-5087
她很	-5088
好奇	-5089
种植	-5090
▁够了	-5091
是一位	-5092
对他们	-5093
▁你一直	-5094
格雷	-5095
肚子	-5096
的位置	-5097
od	-5098
打扮	-5099
模糊	-5100
▁啥	-5101
致力	-5102
述了	-5103
促使	-5104
它会	-5105
射击	-5106
忽略	-5107
可怕的	-5108
尖叫	-5109
2005	-5110
别动	-5111
▁再说	-5112
言论	-5113
▁这就是	-5114
留言	-5115
风景	-5116
▁为什么要	-5117
双手	-5118
嘲笑	-5119
ou	-5120
优惠	-5121
女的	-5122
女人的	-5123
我的话	-5124
侵犯	-5125
待在	-5126
马拉	-5127
▁你太	-5128
你还是	-5129
布斯	-5130
化妆	-5131
又是	-5132
们的	-5133
关掉	-5134
时报	-5135
向前	-5136
企图	-5137
土壤	-5138
▁你让我	-5139
安德	-5140
的社会	-5141
心灵	-5142
蓝色	-5143
股价	-5144
就开始	-5145
外套	-5146
皇家	-5147
ce	-5148
城堡	-5149
楼梯	-5150
绝望	-5151
走廊	-5152
这两	-5153
伍德	-5154
赔偿	-5155
我也不	-5156
担保	-5157
格林	-5158
帮我们	-5159
屋子	-5160
我们所	-5161
修复	-5162
改进	-5163
▁如何	-5164
屋顶	-5165
额外	-5166
凌晨	-5167
”?	-5168
的中国	-5169
排除	-5170
来点	-5171
月的	-5172
经典	-5173
转换	-5174
▁他也	-5175
我爱你	-5176
▁我可是	-5177
气体	-5178
流的	-5179
这些东西	-5180
剧院	-5181
我家	-5182
需要你	-5183
ill	-5184
让你的	-5185
具备	-5186
箱子	-5187
▁这样	-5188
恐怖分子	-5189
角落	-5190
打过	-5191
詹姆斯	-5192
电子邮件	-5193
供应商	-5194
第二次	-5195
说吧	-5196
▁但是如果	-5197
你个	-5198
判决	-5199
得更	-5200
▁子弹	-5201
看不到	-5202
▁你可能	-5203
阻碍	-5204
那位	-5205
展览	-5206
抽烟	-5207
可真	-5208
▁女士们	-5209
超越	-5210
之时	-5211
占据	-5212
掌控	-5213
给了我	-5214
置信	-5215
警报	-5216
▁万一	-5217
中心的	-5218
沉默	-5219
金山	-5220
数据库	-5221
不可思议	-5222
告诉你们	-5223
工作人员	-5224
▁我只知道	-5225
必然	-5226
裙子	-5227
岁了	-5228
est	-5229
1000	-5230
棒球	-5231
克拉	-5232
多年	-5233
进攻	-5234
五分钟	-5235
自己是	-5236
非常好	-5237
发的	-5238
▁她被	-5239
▁我们只	-5240
戴着	-5241
▁她想	-5242
任命	-5243
来找	-5244
询问	-5245
配合	-5246
坏人	-5247
我们没有	-5248
液晶电视	-5249
更容易	-5250
▁你干嘛	-5251
买卖	-5252
▁我为	-5253
克的	-5254
养的	-5255
焦虑	-5256
充满了	-5257
友谊	-5258
摩根	-5259
想办法	-5260
它在	-5261
输入	-5262
▁总是	-5263
我从	-5264
放开	-5265
病的	-5266
有两个	-5267
干扰	-5268
产量	-5269
传染	-5270
周二	-5271
喝醉	-5272
赶快	-5273
一声	-5274
早些时候	-5275
专注	-5276
通道	-5277
里了	-5278
酒店的	-5279
▁我不认为	-5280
散步	-5281
拜访	-5282
给自己	-5283
女王	-5284
弥补	-5285
本人	-5286
伯格	-5287
取决	-5288
天空	-5289
出租车	-5290
和你的	-5291
增加了	-5292
糟糕的	-5293
楼上	-5294
神圣	-5295
剩下的	-5296
妙的	-5297
就被	-5298
温暖	-5299
做事	-5300
天然气	-5301
ev	-5302
创始	-5303
自从	-5304
不良	-5305
古怪	-5306
ell	-5307
时间了	-5308
外部	-5309
碎片	-5310
活力	-5311
美金	-5312
工艺	-5313
我将	-5314
查看	-5315
全套	-5316
老年	-5317
胳膊	-5318
招待	-5319
着呢	-5320
和谐	-5321
见他	-5322
最近的	-5323
场景	-5324
该国	-5325
▁他从	-5326
开口	-5327
此次	-5328
结局	-5329
在其	-5330
▁这位	-5331
真实的	-5332
吸毒	-5333
标记	-5334
粉丝	-5335
脱离	-5336
▁使用	-5337
一套	-5338
三天	-5339
安娜	-5340
法规	-5341
耐心	-5342
▁前	-5343
不大	-5344
整晚	-5345
不动	-5346
小镇	-5347
收藏	-5348
甜心	-5349
资助	-5350
走开	-5351
我们来	-5352
真的吗	-5353
▁不管怎样	-5354
误会	-5355
人会	-5356
他被	-5357
▁你说的	-5358
这个地方	-5359
▁准备好了	-5360
亨利	-5361
她说	-5362
机的	-5363
在里面	-5364
这两个	-5365
对不对	-5366
久了	-5367
名叫	-5368
激励	-5369
▁凶手	-5370
作为一个	-5371
减轻	-5372
强制	-5373
形容	-5374
港口	-5375
场合	-5376
体现	-5377
两周	-5378
个性	-5379
级的	-5380
逃避	-5381
希望能	-5382
配置	-5383
个好	-5384
▁她有	-5385
上网	-5386
▁我当然	-5387
录音	-5388
抵抗	-5389
今天的	-5390
中国政府	-5391
国务	-5392
含有	-5393
在意	-5394
共产党	-5395
一本	-5396
钢琴	-5397
号公路	-5398
明显的	-5399
▁他就是	-5400
示威	-5401
你是谁	-5402
高速互联网	-5403
▁喜欢	-5404
者和	-5405
实习	-5406
品质	-5407
查理	-5408
他没有	-5409
取决于	-5410
肯定是	-5411
史蒂	-5412
眼前	-5413
亿美元的	-5414
平民	-5415
▁乔治	-5416
留着	-5417
面上	-5418
在他们	-5419
志愿	-5420
特工	-5421
饭店	-5422
克里	-5423
集体	-5424
样本	-5425
▁结论	-5426
廉价	-5427
打架	-5428
让您	-5429
局面	-5430
旋转	-5431
▁在美国	-5432
与你	-5433
亲密	-5434
策划	-5435
的爱	-5436
歌曲	-5437
坦白	-5438
引导	-5439
说出来	-5440
作证	-5441
入口	-5442
▁你跟	-5443
柏林	-5444
得很好	-5445
的部分	-5446
算了	-5447
是非常	-5448
弗兰克	-5449
无疑	-5450
精确	-5451
陌生人	-5452
特定	-5453
▁反正	-5454
▁女人	-5455
向你保证	-5456
你是否	-5457
负责人	-5458
任何东西	-5459
▁因为他们	-5460
以往	-5461
共享	-5462
尺寸	-5463
走路	-5464
幸存	-5465
隐私	-5466
色彩	-5467
的力量	-5468
荣誉	-5469
带你去	-5470
缓慢	-5471
你妈妈	-5472
▁希	-5473
树林	-5474
滑雪	-5475
船长	-5476
中了	-5477
第二个	-5478
哥伦比亚	-5479
呈现	-5480
天赋	-5481
周期	-5482
创业	-5483
屋里	-5484
的中	-5485
轻易	-5486
,"	-5487
干预	-5488
▁很快	-5489
称之为	-5490
设计师	-5491
▁我也不	-5492
家公司	-5493
▁我爱你	-5494
小时后	-5495
悲剧	-5496
救援	-5497
聊聊	-5498
迷你	-5499
75	-5500
▁往	-5501
上校	-5502
开着	-5503
所为	-5504
招呼	-5505
▁听说	-5506
直觉	-5507
排名	-5508
▁从来	-5509
过来了	-5510
这只是	-5511
▁早上好	-5512
标签	-5513
特性	-5514
丧失	-5515
空军	-5516
的证据	-5517
▁海	-5518
不是很	-5519
没事了	-5520
唱片	-5521
青少年	-5522
迈克尔	-5523
▁你父亲	-5524
相应	-5525
的安全	-5526
▁我同意	-5527
本质	-5528
所做的	-5529
▁她知道	-5530
这样一个	-5531
围绕	-5532
的多	-5533
那条	-5534
致力于	-5535
不止	-5536
体制	-5537
人是	-5538
▁是呀	-5539
头了	-5540
支撑	-5541
谴责	-5542
休闲	-5543
一小	-5544
保密	-5545
血压	-5546
那只	-5547
主张	-5548
清单	-5549
流感	-5550
热的	-5551
种子	-5552
对比	-5553
活跃	-5554
成年人	-5555
的历史	-5556
也就	-5557
巴勒	-5558
之旅	-5559
会是	-5560
但在	-5561
药品	-5562
衬衫	-5563
夫妻	-5564
德尔	-5565
▁大多数	-5566
难以置信	-5567
卖了	-5568
案例	-5569
诸如	-5570
旧金山	-5571
我相信	-5572
福尼亚	-5573
之际	-5574
岁时	-5575
政权	-5576
不能再	-5577
去哪里	-5578
应用程序	-5579
斯蒂	-5580
沙发床	-5581
如同	-5582
岛上	-5583
不是在	-5584
从来不	-5585
经历了	-5586
东京	-5587
▁但愿	-5588
的需求	-5589
na	-5590
以此	-5591
的头	-5592
规律	-5593
住宅	-5594
无能	-5595
ex	-5596
一团	-5597
的事了	-5598
出血	-5599
坚强	-5600
生命的	-5601
▁上帝啊	-5602
记得吗	-5603
人才	-5604
输了	-5605
▁我告诉过你	-5606
特里	-5607
认可	-5608
!”	-5609
和你说	-5610
一代	-5611
从中	-5612
战场	-5613
一顿	-5614
的两	-5615
使他	-5616
看出	-5617
去看看	-5618
▁学	-5619
操纵	-5620
▁唐	-5621
偷偷	-5622
冒犯	-5623
珠宝	-5624
街头	-5625
赚钱	-5626
▁心	-5627
上车	-5628
老公	-5629
服务器	-5630
▁公	-5631
人体	-5632
但她	-5633
紧缩	-5634
走出	-5635
在外面	-5636
号高速公路	-5637
曾在	-5638
高于	-5639
▁利用	-5640
吸引力	-5641
独特的	-5642
维加斯	-5643
手臂	-5644
▁过去	-5645
也将	-5646
假的	-5647
伴侣	-5648
瑞典	-5649
人类的	-5650
我们还	-5651
号州际公路	-5652
客厅	-5653
理查	-5654
有权	-5655
导演	-5656
帮她	-5657
计划的	-5658
全是	-5659
什么地方	-5660
▁同样	-5661
什么都不	-5662
补贴	-5663
三次	-5664
注定	-5665
问题是	-5666
巡逻	-5667
我就会	-5668
洗手间	-5669
假期	-5670
通信	-5671
▁你总是	-5672
▁太棒了	-5673
化了	-5674
设有	-5675
或者是	-5676
不满	-5677
了几	-5678
使其	-5679
古代	-5680
ity	-5681
事物	-5682
波士顿	-5683
你的朋友	-5684
办事	-5685
老是	-5686
香槟	-5687
我妈妈	-5688
殖民	-5689
上帝的	-5690
经济学	-5691
佛罗里达	-5692
多种	-5693
他们要	-5694
收到了	-5695
体重	-5696
淘汰	-5697
闹钟	-5698
到一个	-5699
提取	-5700
放进	-5701
老天	-5702
▁in	-5703
五十	-5704
懂得	-5705
笑了	-5706
周六	-5707
维斯	-5708
已经开始	-5709
▁科学家	-5710
无可	-5711
神的	-5712
▁你先	-5713
奇怪的	-5714
旅客	-5715
该死	-5716
鉴于	-5717
▁你不觉得	-5718
保佑	-5719
岗位	-5720
掉的	-5721
问他	-5722
城市的	-5723
▁把他们	-5724
坏事	-5725
创意	-5726
富裕	-5727
早点	-5728
ep	-5729
奶酪	-5730
他不会	-5731
▁如果有人	-5732
不来	-5733
发动	-5734
▁T	-5735
崇拜	-5736
这对	-5737
一路	-5738
模仿	-5739
笔记本	-5740
▁因为如果	-5741
▁写	-5742
感恩	-5743
落在	-5744
传递	-5745
别无	-5746
字母	-5747
▁但我想	-5748
引起的	-5749
过来的	-5750
找一个	-5751
什么也没	-5752
扩展	-5753
更糟	-5754
▁我只要	-5755
和我的	-5756
地球上	-5757
▁亚	-5758
贫穷	-5759
一点也不	-5760
▁伯	-5761
诅咒	-5762
缺少	-5763
产生了	-5764
卡罗	-5765
工会	-5766
村庄	-5767
通货	-5768
女孩子	-5769
▁你不用	-5770
你在一起	-5771
车子	-5772
你们要	-5773
的同时	-5774
商人	-5775
的作用	-5776
月球	-5777
这个国家	-5778
个忙	-5779
的市场	-5780
▁日	-5781
不受	-5782
占领	-5783
码头	-5784
▁另一	-5785
奖励	-5786
来做	-5787
▁当地	-5788
▁我担心	-5789
隔离	-5790
▁在我的	-5791
▁我们一起	-5792
利斯	-5793
最为	-5794
sh	-5795
存款	-5796
▁欧洲	-5797
分散	-5798
优秀的	-5799
好朋友	-5800
▁整	-5801
躺在	-5802
回归	-5803
娃娃	-5804
秩序	-5805
举行的	-5806
三十	-5807
他没	-5808
挣扎	-5809
危害	-5810
平方	-5811
辛苦	-5812
平常	-5813
酒精	-5814
▁19	-5815
最后一个	-5816
刑事	-5817
反复	-5818
流血	-5819
觉得自己	-5820
遗产	-5821
▁是你	-5822
愚蠢的	-5823
▁,	-5824
下班	-5825
构建	-5826
讽刺	-5827
了点	-5828
▁他们的	-5829
▁一次	-5830
个孩子	-5831
最重要的	-5832
也被	-5833
不舒服	-5834
最好的朋友	-5835
se	-5836
提出的	-5837
粮食	-5838
重组	-5839
新加坡	-5840
倒是	-5841
死后	-5842
汽油	-5843
边界	-5844
着手	-5845
冲动	-5846
迄今	-5847
却没有	-5848
坏的	-5849
虚拟	-5850
你们在	-5851
你的人	-5852
成功了	-5853
部电影	-5854
▁你说什么	-5855
别想	-5856
这个世界	-5857
面积	-5858
▁半	-5859
一阵	-5860
穿越	-5861
研究所	-5862
▁第三	-5863
原子	-5864
放弃了	-5865
做些	-5866
北方	-5867
所能	-5868
摇滚	-5869
健康的	-5870
dp	-5871
克兰	-5872
36	-5873
修理	-5874
观的	-5875
发生过	-5876
合适的	-5877
48	-5878
房里	-5879
节日	-5880
▁你被	-5881
丑闻	-5882
性能	-5883
▁我非常	-5884
眼神	-5885
▁估计	-5886
发送	-5887
囚犯	-5888
受益	-5889
倾向于	-5890
找到他	-5891
电视台	-5892
你把	-5893
奥尔	-5894
什么是	-5895
▁一定要	-5896
下车	-5897
大师	-5898
平安	-5899
产品的	-5900
盒子	-5901
行事	-5902
防御	-5903
▁哪怕	-5904
很明显	-5905
的一位	-5906
参考	-5907
向他	-5908
德的	-5909
顺便	-5910
ank	-5911
丰富的	-5912
我们也	-5913
一点都不	-5914
会使	-5915
骑士	-5916
业的	-5917
关门	-5918
到他	-5919
德拉	-5920
预言	-5921
▁我不敢	-5922
形状	-5923
管道	-5924
特殊的	-5925
男人的	-5926
强壮	-5927
气氛	-5928
另一种	-5929
▁我开始	-5930
读书	-5931
透明	-5932
▁我会	-5933
菜单	-5934
谷类	-5935
son	-5936
我只是想	-5937
未婚	-5938
我的人	-5939
养老	-5940
老实	-5941
学校的	-5942
点时间	-5943
得上	-5944
抑郁	-5945
▁R	-5946
当初	-5947
最喜欢的	-5948
绝不会	-5949
与其	-5950
和小	-5951
救护	-5952
我还有	-5953
歌手	-5954
洛克	-5955
很喜欢	-5956
表现出	-5957
严厉	-5958
神父	-5959
一下吗	-5960
因为它	-5961
宴会	-5962
好不好	-5963
负债	-5964
▁哥们	-5965
▁我去拿	-5966
需要一个	-5967
骚扰	-5968
事儿	-5969
▁我觉得她	-5970
对着	-5971
赌场	-5972
还不够	-5973
社会主义	-5974
改造	-5975
中的一个	-5976
▁文	-5977
尽情	-5978
原理	-5979
大号	-5980
拿来	-5981
中东	-5982
关联	-5983
功夫	-5984
西洋	-5985
知不知道	-5986
野生	-5987
▁如此	-5988
你最好	-5989
因为她	-5990
▁我妈	-5991
先生的	-5992
目的是	-5993
▁你认识	-5994
▁别说了	-5995
著名	-5996
的可能性	-5997
好运	-5998
合理的	-5999
我所知	-6000
百分之	-6001
回了	-6002
店里	-6003
气的	-6004
但他们	-6005
▁他们想	-6006
大选	-6007
而被	-6008
?。	-6009
错的	-6010
可能的	-6011
航空公司	-6012
有趣的	-6013
路易斯	-6014
来自于	-6015
拿了	-6016
年级	-6017
欧式	-6018
疫苗	-6019
▁唉	-6020
灵活	-6021
电站	-6022
修正	-6023
▁可以	-6024
我发誓	-6025
一无所	-6026
研究人员	-6027
是指	-6028
动物园	-6029
周日	-6030
层的	-6031
美食	-6032
自私	-6033
你们都	-6034
主权	-6035
小小的	-6036
打印	-6037
至关	-6038
▁我好	-6039
不确定	-6040
▁怎么样	-6041
一颗	-6042
名人	-6043
拿出	-6044
股权	-6045
拿出来	-6046
▁是什么	-6047
路了	-6048
真是个	-6049
你可能	-6050
怎么能	-6051
the	-6052
▁但是在	-6053
受过	-6054
测定	-6055
的可	-6056
▁我想我们	-6057
地铁	-6058
▁好极了	-6059
到这儿	-6060
周三	-6061
生理	-6062
关系的	-6063
有任何	-6064
▁爱	-6065
克服	-6066
恐慌	-6067
助手	-6068
薪水	-6069
温和	-6070
阴谋	-6071
巴勒斯坦	-6072
▁n	-6073
东部	-6074
信念	-6075
波兰	-6076
根本不	-6077
▁你想让我	-6078
岩石	-6079
掩盖	-6080
考验	-6081
辅助	-6082
做的就是	-6083
游行	-6084
视觉	-6085
桌上	-6086
钓鱼	-6087
三角	-6088
马逊	-6089
原因是	-6090
罗拉	-6091
wit	-6092
▁万	-6093
将于	-6094
的人生	-6095
使我	-6096
包裹	-6097
引人	-6098
猴子	-6099
▁她不	-6100
分钟后	-6101
问题吗	-6102
烦恼	-6103
2.	-6104
拉丁	-6105
▁关键	-6106
莫斯科	-6107
我叫	-6108
分类	-6109
有两	-6110
▁国际	-6111
主导	-6112
剧本	-6113
南非	-6114
门票	-6115
想要的	-6116
服务的	-6117
▁近	-6118
为她	-6119
▁你喜欢	-6120
保姆	-6121
决赛	-6122
猜测	-6123
糊涂	-6124
仿佛	-6125
另外一个	-6126
▁如果你能	-6127
▁西	-6128
自愿	-6129
香肠	-6130
主要的	-6131
这种情况	-6132
挑选	-6133
这只	-6134
▁别说	-6135
▁何	-6136
▁4	-6137
一对	-6138
军人	-6139
吵架	-6140
得的	-6141
基督教	-6142
六个月	-6143
周四	-6144
常规	-6145
发动机	-6146
实在是	-6147
每天都	-6148
大大	-6149
我儿子	-6150
我明白	-6151
我父亲	-6152
州长	-6153
救助	-6154
虐待	-6155
▁简直	-6156
把他的	-6157
▁他说他	-6158
oh	-6159
但它	-6160
要说	-6161
分析了	-6162
下载	-6163
没能	-6164
沙滩	-6165
生素	-6166
歧视	-6167
太阳能	-6168
美式	-6169
▁你再	-6170
这东西	-6171
其中包括	-6172
快要	-6173
恒星	-6174
稍微	-6175
要比	-6176
三个月	-6177
举动	-6178
弗雷	-6179
▁很难	-6180
警探	-6181
也可能	-6182
分歧	-6183
更高的	-6184
▁另一个	-6185
米尔	-6186
余的	-6187
后者	-6188
巴士	-6189
性格	-6190
有许多	-6191
▁j	-6192
好几	-6193
胡子	-6194
▁穿着	-6195
可以吗	-6196
目前为止	-6197
▁作为一个	-6198
一无	-6199
储蓄	-6200
150	-6201
指的是	-6202
初步	-6203
想像	-6204
不清楚	-6205
牛排	-6206
盈利	-6207
谈过	-6208
群岛	-6209
▁你怎么能	-6210
块钱	-6211
这段	-6212
正常的	-6213
▁普	-6214
出现的	-6215
的权利	-6216
稳定的	-6217
军方	-6218
可惜	-6219
找他	-6220
西斯	-6221
送你	-6222
阁下	-6223
冬天	-6224
奖金	-6225
加利福尼亚	-6226
▁几个	-6227
不要再	-6228
受害人	-6229
最有	-6230
季第	-6231
▁相反	-6232
对我的	-6233
我不喜欢	-6234
从你	-6235
地带	-6236
▁停下	-6237
的一员	-6238
都不能	-6239
气候变化	-6240
▁劳	-6241
▁活	-6242
犹豫	-6243
嘴里	-6244
心中	-6245
罪恶	-6246
▁像是	-6247
我看到	-6248
了一场	-6249
暴风	-6250
加工	-6251
地理	-6252
欲望	-6253
ah	-6254
在那边	-6255
处在	-6256
赢得了	-6257
想念	-6258
流浪	-6259
消耗	-6260
实力	-6261
技术的	-6262
▁各	-6263
亲眼	-6264
弄得	-6265
花钱	-6266
了下来	-6267
菲尔德	-6268
死刑	-6269
有人在	-6270
活动的	-6271
▁他认为	-6272
打个电话	-6273
认识到	-6274
那样做	-6275
斯塔	-6276
死人	-6277
纳税	-6278
也许是	-6279
facebook	-6280
ry	-6281
威士	-6282
受够了	-6283
这里是	-6284
▁先生们	-6285
叫什么名字	-6286
无限	-6287
的吧	-6288
罪行	-6289
还好	-6290
的儿子	-6291
▁其他人	-6292
这么做的	-6293
不在乎	-6294
没那么	-6295
放射	-6296
早已	-6297
欢乐	-6298
商学院	-6299
已经有	-6300
陛下	-6301
▁那是	-6302
来看看	-6303
0.	-6304
▁晚安	-6305
会谈	-6306
藏在	-6307
更喜欢	-6308
埃尔	-6309
找人	-6310
步行	-6311
镜子	-6312
▁艾	-6313
光了	-6314
关了	-6315
史密	-6316
篮球	-6317
获胜	-6318
会不会	-6319
依旧	-6320
哈佛	-6321
快了	-6322
画面	-6323
诱惑	-6324
罗伯特	-6325
问题上	-6326
生育	-6327
这也	-6328
帮助你	-6329
2004	-6330
一根	-6331
下滑	-6332
合约	-6333
谋杀案	-6334
做的事情	-6335
解决方案	-6336
理智	-6337
▁10	-6338
▁别忘了	-6339
今早	-6340
时间的	-6341
不是我的	-6342
发作	-6343
枪击	-6344
创始人	-6345
发生的事	-6346
很快就会	-6347
试过	-6348
关节	-6349
包围	-6350
大厅	-6351
星星	-6352
▁你个	-6353
▁女士	-6354
玩意儿	-6355
我还没	-6356
的决定	-6357
还有一个	-6358
你却	-6359
▁你俩	-6360
我发现	-6361
屠杀	-6362
认知	-6363
善良	-6364
他和	-6365
赋予	-6366
▁我知道这	-6367
英文	-6368
的家庭	-6369
ov	-6370
一辈子	-6371
iP	-6372
噩梦	-6373
多样	-6374
生了	-6375
的家	-6376
▁一天	-6377
了不起	-6378
吉姆	-6379
长得	-6380
真理	-6381
约束	-6382
的那些	-6383
犯罪现场	-6384
。—	-6385
午夜	-6386
可能在	-6387
捐赠	-6388
▁他们不会	-6389
▁简	-6390
▁刚刚	-6391
▁我给	-6392
一小时	-6393
比赛中	-6394
保健	-6395
▁6	-6396
医师	-6397
份额	-6398
偷了	-6399
演唱	-6400
住房	-6401
昏迷	-6402
势力	-6403
用它	-6404
通话	-6405
▁我说过	-6406
▁因为它	-6407
犯了	-6408
古老的	-6409
人权	-6410
他将	-6411
掩护	-6412
她不	-6413
疗法	-6414
警长	-6415
▁法律	-6416
多大	-6417
旅程	-6418
当地的	-6419
社会的	-6420
其中一个	-6421
等了	-6422
便利设施	-6423
弄到	-6424
篇文章	-6425
护照	-6426
芯片	-6427
我很好	-6428
▁别碰	-6429
兔子	-6430
写信	-6431
性别	-6432
▁八	-6433
你被	-6434
外界	-6435
▁一只	-6436
还需要	-6437
派的	-6438
结了	-6439
那人	-6440
不准	-6441
▁新的	-6442
普拉斯	-6443
上万	-6444
▁把枪	-6445
争吵	-6446
强硬	-6447
特勒	-6448
▁接受	-6449
错过了	-6450
发育	-6451
困惑	-6452
缓解	-6453
在内	-6454
得知	-6455
开始的	-6456
这意味着	-6457
无意	-6458
个星期	-6459
摄像机	-6460
▁别紧张	-6461
墙上	-6462
指南	-6463
深深	-6464
任何一个	-6465
使命	-6466
加拉	-6467
和大	-6468
警察局	-6469
我这	-6470
变革	-6471
领土	-6472
四十	-6473
康复	-6474
不出来	-6475
春天	-6476
感受到	-6477
▁我早就	-6478
名称	-6479
市民	-6480
恶化	-6481
整合	-6482
▁怎么回事	-6483
对面	-6484
短暂	-6485
的态度	-6486
想你	-6487
走运	-6488
充足	-6489
车祸	-6490
谁是	-6491
马丁	-6492
主的	-6493
尝尝	-6494
白天	-6495
▁你刚	-6496
▁几天	-6497
那次	-6498
告诉过你	-6499
▁被	-6500
上课	-6501
低的	-6502
降落	-6503
监狱里	-6504
飞行员	-6505
对你来说	-6506
喜剧	-6507
泰国	-6508
率的	-6509
我的孩子	-6510
但却	-6511
好极了	-6512
意愿	-6513
能让	-6514
对我说	-6515
老妈	-6516
跑步	-6517
只是想	-6518
意义的	-6519
是中国	-6520
▁你爸爸	-6521
男生	-6522
监护	-6523
浪费时间	-6524
成千	-6525
逃离	-6526
▁带着	-6527
▁我们该	-6528
ack	-6529
只是在	-6530
好多了	-6531
打电话给	-6532
有事	-6533
水里	-6534
起床	-6535
▁恭喜	-6536
睡着了	-6537
▁我真的很	-6538
▁双	-6539
大多	-6540
的外	-6541
采购	-6542
但我们	-6543
出色的	-6544
必须要	-6545
消灭	-6546
年以来	-6547
身上的	-6548
▁G	-6549
为例	-6550
手了	-6551
电信	-6552
说到	-6553
现在开始	-6554
糟了	-6555
的最佳	-6556
多次	-6557
诊所	-6558
身材	-6559
门的	-6560
外星人	-6561
指挥官	-6562
▁利	-6563
又有	-6564
而易	-6565
▁把手	-6566
这是什么	-6567
印刷	-6568
条约	-6569
此类	-6570
糖尿	-6571
重量	-6572
的技术	-6573
我的生活	-6574
▁七	-6575
威士忌	-6576
朋友的	-6577
毁掉	-6578
全新的	-6579
平时	-6580
精英	-6581
对中国	-6582
推迟	-6583
他自己	-6584
基金会	-6585
我感觉	-6586
处境	-6587
▁我太	-6588
▁我认识	-6589
是怎么回事	-6590
哈顿	-6591
把握	-6592
海盗	-6593
和你一起	-6594
▁你还记得	-6595
google	-6596
拍照	-6597
看见了	-6598
witter	-6599
毫无疑问	-6600
还得	-6601
站起来	-6602
咱俩	-6603
特色	-6604
党的	-6605
局势	-6606
的光	-6607
衡量	-6608
新鲜水果	-6609
冲浪	-6610
▁我把它	-6611
举措	-6612
长了	-6613
你以为	-6614
会让	-6615
头儿	-6616
存储	-6617
蒙特	-6618
以前的	-6619
▁你真是	-6620
我的工作	-6621
预订	-6622
▁他一直	-6623
▁很显然	-6624
子和	-6625
▁他用	-6626
查尔斯	-6627
住宿	-6628
银行家	-6629
不算	-6630
定期	-6631
巨头	-6632
警卫	-6633
销量	-6634
闭上	-6635
受欢迎的	-6636
放心	-6637
转化	-6638
▁但那	-6639
▁我不得不	-6640
吉尼亚	-6641
多久了	-6642
膝盖	-6643
不敢相信	-6644
形的	-6645
前就	-6646
合成	-6647
实的	-6648
带我	-6649
她们的	-6650
人工	-6651
荒谬	-6652
···	-6653
传说	-6654
不可能的	-6655
▁如果不是	-6656
没办法	-6657
▁只不过	-6658
残忍	-6659
赛季	-6660
小伙子	-6661
东尼	-6662
景点	-6663
灵感	-6664
失败了	-6665
表现得	-6666
▁我不需要	-6667
使你	-6668
替我	-6669
魔术	-6670
和美国	-6671
2003	-6672
我的意思是	-6673
北极	-6674
大战	-6675
航天	-6676
▁一开始	-6677
我有个	-6678
偶然	-6679
逃脱	-6680
:30	-6681
上过	-6682
商场	-6683
他不是	-6684
劳动力	-6685
的内容	-6686
数十	-6687
相当于	-6688
▁我建议	-6689
打扫	-6690
礼服	-6691
的危险	-6692
的环境	-6693
说他们	-6694
履行	-6695
杀我	-6696
什么样	-6697
曼哈顿	-6698
和我一起	-6699
每人	-6700
100%	-6701
▁他们不	-6702
封锁	-6703
主要是	-6704
接电话	-6705
▁出去	-6706
复活	-6707
打我	-6708
赞成	-6709
▁你用	-6710
坏消息	-6711
是如此	-6712
普通的	-6713
的关键	-6714
额外的	-6715
▁我从未	-6716
激素	-6717
车站	-6718
是对的	-6719
侮辱	-6720
大小	-6721
推广	-6722
校园	-6723
你到底	-6724
合伙人	-6725
看一下	-6726
现有	-6727
肮脏	-6728
已经死了	-6729
尔特	-6730
谁会	-6731
服用	-6732
泽西	-6733
拘留	-6734
过后	-6735
接收	-6736
麦片	-6737
同时也	-6738
▁几个月	-6739
右边	-6740
交易所	-6741
奥运会	-6742
日报	-6743
钱了	-6744
接受了	-6745
都不是	-6746
▁我承认	-6747
会面	-6748
罪名	-6749
▁你叫	-6750
附加	-6751
他现在	-6752
▁如果没有	-6753
乖乖	-6754
放了	-6755
极为	-6756
进监狱	-6757
认出	-6758
说要	-6759
都将	-6760
了一份	-6761
之上	-6762
福特	-6763
all	-6764
▁学生	-6765
第五	-6766
脑子里	-6767
一个新的	-6768
夏季	-6769
热带	-6770
拿到了	-6771
的衣服	-6772
这个词	-6773
看起来像	-6774
打电话给我	-6775
市的	-6776
搬到	-6777
二氧化	-6778
专用	-6779
这本书	-6780
很长时间	-6781
我妈	-6782
介绍了	-6783
我们俩	-6784
选择了	-6785
治理	-6786
认同	-6787
遇到了	-6788
岁的时候	-6789
匹配	-6790
厌恶	-6791
国债	-6792
布尔	-6793
打断	-6794
▁好吗	-6795
迈阿	-6796
▁这项	-6797
品种	-6798
情的	-6799
钢铁	-6800
时代的	-6801
预定	-6802
验证	-6803
发生了什么事	-6804
层次	-6805
缅甸	-6806
▁在她	-6807
把事情	-6808
权威	-6809
百分	-6810
祝福	-6811
协定	-6812
糕点	-6813
31	-6814
亚历	-6815
大气	-6816
意图	-6817
青春	-6818
电视上	-6819
终止	-6820
▁免费	-6821
的唯一	-6822
▁我也不知道	-6823
ik	-6824
决议	-6825
加以	-6826
糖果	-6827
吃东西	-6828
你可	-6829
物体	-6830
高达	-6831
创伤	-6832
▁是他	-6833
在这种	-6834
那是什么	-6835
我跟	-6836
把车	-6837
河流	-6838
独立的	-6839
▁当然可以	-6840
会对	-6841
古巴	-6842
装修	-6843
说得	-6844
▁给他	-6845
我告诉你	-6846
军官	-6847
永久	-6848
镇上	-6849
▁我不要	-6850
妨碍	-6851
毛病	-6852
私下	-6853
赞助	-6854
被发现	-6855
造成了	-6856
蜘蛛	-6857
大臣	-6858
常见	-6859
执政	-6860
日记	-6861
我爸爸	-6862
看不见	-6863
我们一起	-6864
克尔	-6865
一眼	-6866
室外	-6867
泄露	-6868
克拉克	-6869
的一份	-6870
qu	-6871
意料	-6872
扎菲	-6873
留下的	-6874
企业家	-6875
你真的	-6876
无所谓	-6877
味的	-6878
就去	-6879
优雅	-6880
多谢	-6881
着她	-6882
再也	-6883
正当	-6884
纳德	-6885
公司在	-6886
乐园	-6887
开会	-6888
不成	-6889
没用	-6890
原来的	-6891
▁待	-6892
年里	-6893
承包	-6894
故障	-6895
还不错	-6896
假如	-6897
▁你做	-6898
为他们	-6899
无烟客房	-6900
上尉	-6901
调节	-6902
▁甚至	-6903
这也是	-6904
懂的	-6905
激光	-6906
就不能	-6907
的一面	-6908
列车	-6909
办理	-6910
杰夫	-6911
残酷	-6912
血迹	-6913
的投资	-6914
投降	-6915
一分钟	-6916
喜欢我	-6917
银行业	-6918
▁我几乎	-6919
格里	-6920
管制	-6921
ess	-6922
的速度	-6923
▁我觉得他	-6924
▁切	-6925
反而	-6926
因而	-6927
来临	-6928
解决了	-6929
▁仅	-6930
想说	-6931
睡了	-6932
都不知道	-6933
两名	-6934
人吗	-6935
布拉	-6936
可笑	-6937
布兰	-6938
必需	-6939
慷慨	-6940
肩膀	-6941
你是不是	-6942
接下来的	-6943
你才	-6944
狮子	-6945
爱的人	-6946
▁我明天	-6947
卖掉	-6948
很高	-6949
收回	-6950
景观	-6951
还真	-6952
的表现	-6953
的选择	-6954
她有	-6955
取得了	-6956
这么认为	-6957
55	-6958
he	-6959
对冲	-6960
招聘	-6961
的城市	-6962
关上	-6963
合物	-6964
3.	-6965
业绩	-6966
制品	-6967
适用于	-6968
我太	-6969
运转	-6970
和其它	-6971
无线电	-6972
杀了她	-6973
一头	-6974
得不错	-6975
克利	-6976
出一个	-6977
强烈的	-6978
▁你愿意	-6979
她要	-6980
接待	-6981
他们不	-6982
对自己	-6983
我的心	-6984
上司	-6985
融合	-6986
摄像头	-6987
▁他们有	-6988
大事	-6989
火了	-6990
完全是	-6991
热水	-6992
者在	-6993
▁算了	-6994
和我说	-6995
发起	-6996
宇航	-6997
总体	-6998
提示	-6999
ort	-7000
参加了	-7001
三分之一	-7002
击败	-7003
孤单	-7004
支援	-7005
这太	-7006
哭了	-7007
种种	-7008
只不过	-7009
▁在那里	-7010
车库	-7011
会议上	-7012
例外	-7013
那晚	-7014
麻醉	-7015
宽敞的	-7016
如果你想	-7017
别说	-7018
左边	-7019
已有	-7020
忙着	-7021
查查	-7022
有关的	-7023
暂停	-7024
解除	-7025
你的名字	-7026
你将	-7027
少的	-7028
校长	-7029
在过去	-7030
白的	-7031
群众	-7032
▁自从	-7033
欧式早餐	-7034
他又	-7035
塔利	-7036
▁位于	-7037
▁D	-7038
挖掘	-7039
推测	-7040
只是一个	-7041
▁单	-7042
下周	-7043
瞬间	-7044
难题	-7045
全套服务	-7046
▁我们认为	-7047
挽救	-7048
目光	-7049
去拿	-7050
回复	-7051
洪水	-7052
ark	-7053
市场上	-7054
收获	-7055
▁我只有	-7056
当代	-7057
月亮	-7058
这样说	-7059
▁我知道我	-7060
中午	-7061
赌博	-7062
马尔	-7063
▁丹尼	-7064
和免费	-7065
没想到	-7066
布里	-7067
其中的	-7068
你吗	-7069
家了	-7070
之前的	-7071
可以通过	-7072
og	-7073
东方	-7074
In	-7075
很快就	-7076
最新的	-7077
的味道	-7078
▁洛杉矶	-7079
我很高兴	-7080
懂吗	-7081
无需	-7082
196	-7083
▁无法	-7084
那我	-7085
如果他	-7086
一堆	-7087
爱她	-7088
我的手	-7089
问题了	-7090
sp	-7091
几十	-7092
按钮	-7093
▁曾经	-7094
是他的	-7095
战胜	-7096
路口	-7097
▁令人	-7098
▁可惜	-7099
▁怎样	-7100
伪装	-7101
出卖	-7102
征服	-7103
老虎	-7104
制造业	-7105
做些什么	-7106
不堪	-7107
▁来自	-7108
付款	-7109
亚马逊	-7110
中所	-7111
货车	-7112
随意	-7113
鲨鱼	-7114
人来	-7115
典型	-7116
新娘	-7117
框架	-7118
雇主	-7119
▁可怜	-7120
凯恩	-7121
容忍	-7122
肯尼	-7123
迷人	-7124
东西都	-7125
很奇怪	-7126
不开	-7127
这将	-7128
适用	-7129
了她的	-7130
▁你在说什么	-7131
制裁	-7132
推销	-7133
一个大	-7134
▁L	-7135
在外	-7136
残疾	-7137
特尔	-7138
证书	-7139
付费	-7140
▁全球	-7141
▁谢谢	-7142
基础设施	-7143
不通	-7144
光明	-7145
商量	-7146
审讯	-7147
谈到	-7148
ang	-7149
上下	-7150
带领	-7151
房产	-7152
祖父	-7153
不容易	-7154
研究的	-7155
英国的	-7156
去见	-7157
流程	-7158
会让你	-7159
很开心	-7160
加剧	-7161
造的	-7162
38	-7163
终结	-7164
的说	-7165
▁她现在	-7166
买家	-7167
违约	-7168
▁你还有	-7169
之类	-7170
离子	-7171
厨师	-7172
报导	-7173
▁不是我	-7174
▁你这是	-7175
理事	-7176
传奇	-7177
近期	-7178
很漂亮	-7179
机构的	-7180
蛋白质	-7181
一趟	-7182
不论	-7183
▁总之	-7184
▁这次	-7185
你从	-7186
妥协	-7187
探险	-7188
订婚	-7189
是他们	-7190
驱逐	-7191
你父亲	-7192
为什么会	-7193
资本主义	-7194
越来越多的	-7195
我有点	-7196
不利	-7197
的政府	-7198
这个案子	-7199
▁我只是在	-7200
大厦	-7201
谷类食品	-7202
星系	-7203
源于	-7204
▁st	-7205
见过他	-7206
面临着	-7207
▁很多人	-7208
▁F	-7209
以防	-7210
分为	-7211
▁于是	-7212
不许	-7213
挂了	-7214
洛伊	-7215
卡斯	-7216
抚养	-7217
期限	-7218
深处	-7219
▁有关	-7220
的观点	-7221
ma	-7222
替你	-7223
百姓	-7224
了一切	-7225
希尔	-7226
典型的	-7227
变得更	-7228
经纪人	-7229
男女	-7230
纷纷	-7231
办公桌	-7232
并不能	-7233
▁r	-7234
中学	-7235
鸡尾	-7236
的事件	-7237
的那种	-7238
成千上万	-7239
执法	-7240
过她	-7241
▁为什么你不	-7242
昆虫	-7243
小女孩	-7244
去买	-7245
感冒	-7246
▁去吧	-7247
的价值	-7248
▁因为我想	-7249
▁7	-7250
目录	-7251
是我们的	-7252
▁除	-7253
到那	-7254
强劲	-7255
整整	-7256
独特	-7257
节奏	-7258
▁我可不是	-7259
祷告	-7260
lin	-7261
对外	-7262
岛屿	-7263
描绘	-7264
数的	-7265
泳池	-7266
为一个	-7267
以至于	-7268
通货膨胀	-7269
规定的	-7270
因为我们	-7271
▁我觉得我们	-7272
傻了	-7273
我最	-7274
火星	-7275
有一点	-7276
看到他	-7277
理性	-7278
祝贺	-7279
给人	-7280
部件	-7281
不允许	-7282
▁我完全	-7283
▁告诉他们	-7284
ib	-7285
优质	-7286
搞得	-7287
本国	-7288
驱动	-7289
gdp	-7290
▁一名	-7291
组成的	-7292
机密	-7293
到现在	-7294
列表	-7295
缩小	-7296
▁今天早上	-7297
▁同	-7298
住手	-7299
纳斯	-7300
被害	-7301
▁我却	-7302
看得	-7303
弄清楚	-7304
▁一定是	-7305
大胆	-7306
清除	-7307
▁明白	-7308
份工作	-7309
▁(	-7310
的反	-7311
祖母	-7312
▁我很好	-7313
一笔	-7314
前任	-7315
告知	-7316
绅士	-7317
就是你	-7318
嘴唇	-7319
幻觉	-7320
了的	-7321
男的	-7322
厚的	-7323
ant	-7324
失控	-7325
扩散	-7326
楼下	-7327
落后	-7328
阴影	-7329
饿了	-7330
糖尿病	-7331
审计	-7332
潜水	-7333
告诉我的	-7334
投诉	-7335
语音	-7336
进去了	-7337
所得	-7338
超市	-7339
难民	-7340
共有	-7341
内在	-7342
废物	-7343
罢工	-7344
▁法国	-7345
是怎样	-7346
奢侈	-7347
竞赛	-7348
▁把我的	-7349
收取	-7350
是用	-7351
的调查	-7352
发型	-7353
干涉	-7354
逐步	-7355
价钱	-7356
动态	-7357
温柔	-7358
研发	-7359
透过	-7360
产阶级	-7361
打给你	-7362
▁洗	-7363
乘坐	-7364
倒霉	-7365
我爸	-7366
超过了	-7367
新生	-7368
特拉	-7369
轿车	-7370
影响力	-7371
▁天呐	-7372
我马上	-7373
一口	-7374
富翁	-7375
你不知道	-7376
卡拉	-7377
地板	-7378
换了	-7379
猩猩	-7380
频率	-7381
坐下来	-7382
▁他们把	-7383
智能手机	-7384
使人	-7385
潜力	-7386
营地	-7387
这些事	-7388
报酬	-7389
▁我不想再	-7390
▁排	-7391
一道	-7392
只想	-7393
达尔	-7394
去参加	-7395
的理由	-7396
目前的	-7397
结束后	-7398
一个小时	-7399
折扣	-7400
赞同	-7401
▁她就	-7402
▁唱	-7403
我吧	-7404
火灾	-7405
狂欢	-7406
▁夫人	-7407
到你的	-7408
卡扎菲	-7409
回去了	-7410
是美国	-7411
离开这	-7412
加快	-7413
呆了	-7414
我以前	-7415
拿走了	-7416
认识的	-7417
发展中国	-7418
着急	-7419
嫌疑犯	-7420
▁我从来没	-7421
▁真	-7422
喉咙	-7423
我好	-7424
治愈	-7425
是一名	-7426
▁分	-7427
▁让	-7428
个体	-7429
删除	-7430
未经	-7431
面具	-7432
骨折	-7433
句话说	-7434
亲戚	-7435
延长	-7436
线的	-7437
渐渐	-7438
看作	-7439
线路	-7440
城的	-7441
它了	-7442
不了的	-7443
星期五	-7444
▁水	-7445
你别	-7446
凯特	-7447
瞧瞧	-7448
讲述	-7449
你的工作	-7450
热爱	-7451
苏丹	-7452
迟到	-7453
刚好	-7454
波动	-7455
失业率	-7456
说实话	-7457
▁–	-7458
圣地	-7459
了一项	-7460
参议院	-7461
内衣	-7462
拿开	-7463
坚信	-7464
手套	-7465
皇后	-7466
他就是	-7467
的一家	-7468
介入	-7469
电台	-7470
称呼	-7471
艾滋	-7472
迈阿密	-7473
▁直	-7474
牛肉	-7475
网页	-7476
那张	-7477
千万别	-7478
▁毒	-7479
两者	-7480
越多	-7481
▁但是她	-7482
▁让我们	-7483
求婚	-7484
祖先	-7485
维克	-7486
薪酬	-7487
鸡尾酒	-7488
夸张	-7489
起飞	-7490
▁打扰	-7491
生产商	-7492
进来的	-7493
一瓶	-7494
你爸爸	-7495
又不是	-7496
搞清楚	-7497
上说	-7498
与我	-7499
纹身	-7500
贝克	-7501
下水	-7502
旧的	-7503
焦点	-7504
很清楚	-7505
我走	-7506
号出口	-7507
政策的	-7508
领域的	-7509
▁等	-7510
胸部	-7511
作物	-7512
舌头	-7513
是什么时候	-7514
突出	-7515
你说什么	-7516
杂种	-7517
太多的	-7518
▁你说过	-7519
帐户	-7520
达到了	-7521
条例	-7522
肥胖	-7523
跑到	-7524
▁我早	-7525
还给我	-7526
户外	-7527
▁全部	-7528
将成为	-7529
怀孕了	-7530
我知道你	-7531
一百	-7532
受了	-7533
要不	-7534
贱人	-7535
▁你知道我们	-7536
事先	-7537
气味	-7538
监测	-7539
只需要	-7540
死在	-7541
独裁	-7542
理查德	-7543
▁几年前	-7544
我们知道	-7545
一刻	-7546
不明	-7547
做这个	-7548
就已经	-7549
心理学	-7550
有必要	-7551
的食物	-7552
不肯	-7553
令我	-7554
文本	-7555
证词	-7556
一直都	-7557
事务所	-7558
受伤了	-7559
极度	-7560
胡说	-7561
这里有	-7562
无比	-7563
了一点	-7564
类型的	-7565
自由的	-7566
▁就好像	-7567
▁他是一个	-7568
写着	-7569
放缓	-7570
电动	-7571
确切	-7572
▁她能	-7573
丢下	-7574
伤了	-7575
州立	-7576
激进	-7577
人为	-7578
减肥	-7579
建筑物	-7580
的要	-7581
▁约翰	-7582
尽全力	-7583
▁你好吗	-7584
指令	-7585
维多	-7586
和你们	-7587
那时候	-7588
▁但我不	-7589
一番	-7590
打包	-7591
提及	-7592
▁像个	-7593
99	-7594
战术	-7595
轮胎	-7596
你好吗	-7597
▁你刚刚	-7598
揭示	-7599
▁我了解	-7600
高了	-7601
双人床	-7602
对他的	-7603
的报告	-7604
▁H	-7605
消化	-7606
▁法官	-7607
硬币	-7608
见证	-7609
送去	-7610
单一	-7611
是为	-7612
选票	-7613
有力的	-7614
死定了	-7615
▁反	-7616
标牌	-7617
空的	-7618
纯粹	-7619
价值的	-7620
唯一一个	-7621
.....	-7622
不合	-7623
丛林	-7624
急救	-7625
晚点	-7626
本土	-7627
西装	-7628
▁无论如何	-7629
灯光	-7630
ord	-7631
▁抓住	-7632
棒极了	-7633
爱他	-7634
做点	-7635
使他们	-7636
是时候	-7637
项目的	-7638
准则	-7639
犯人	-7640
了起来	-7641
艺术品	-7642
嘴巴	-7643
太过	-7644
昨日	-7645
海里	-7646
订单	-7647
他去	-7648
完毕	-7649
有罪	-7650
远了	-7651
一起来	-7652
得不到	-7653
休息一下	-7654
号的	-7655
当选	-7656
怪异	-7657
论坛	-7658
起码	-7659
我今天	-7660
就该	-7661
才行	-7662
海湾	-7663
色情	-7664
▁借	-7665
金斯	-7666
所有这些	-7667
▁低	-7668
眼里	-7669
在内的	-7670
这份工作	-7671
下手	-7672
体会	-7673
总结	-7674
小心点	-7675
现代化	-7676
什么样的	-7677
偿还	-7678
无效	-7679
醒了	-7680
其他地方	-7681
德克萨斯	-7682
ht	-7683
与众	-7684
回顾	-7685
把戏	-7686
▁目的	-7687
被视为	-7688
再生	-7689
眼泪	-7690
被抓	-7691
▁三个	-7692
可以用	-7693
我的意思	-7694
▁太阳	-7695
很棒的	-7696
▁华	-7697
点半	-7698
▁20	-7699
会导致	-7700
的人民	-7701
部门的	-7702
▁8	-7703
高层	-7704
▁下午	-7705
给你看	-7706
这是你的	-7707
当他	-7708
签字	-7709
翅膀	-7710
被认为是	-7711
拉里	-7712
遇见	-7713
阳台	-7714
法庭上	-7715
同伴	-7716
罗姆	-7717
▁听上去	-7718
别无选择	-7719
姿势	-7720
高等	-7721
严格的	-7722
可怜的	-7723
了些	-7724
吉他	-7725
好玩	-7726
嫁给	-7727
病例	-7728
裁决	-7729
ick	-7730
不介意	-7731
的事物	-7732
下雨	-7733
员的	-7734
遵循	-7735
书中	-7736
披萨	-7737
每位	-7738
▁安全	-7739
▁比利	-7740
世纪的	-7741
德斯	-7742
挺好的	-7743
▁冰	-7744
丹麦	-7745
削弱	-7746
帐篷	-7747
数百	-7748
就是为了	-7749
交道	-7750
换个	-7751
▁你们知道	-7752
▁伦敦	-7753
▁因为我是	-7754
▁我不在乎	-7755
君子	-7756
头痛	-7757
次了	-7758
宽恕	-7759
称作	-7760
动荡	-7761
当我们	-7762
儿的	-7763
教你	-7764
站着	-7765
美军	-7766
预约	-7767
导致了	-7768
那里的	-7769
▁我需要你	-7770
海上	-7771
回到了	-7772
留在这里	-7773
喝点	-7774
容纳	-7775
指甲	-7776
窃听	-7777
黄色	-7778
和她的	-7779
存在着	-7780
小孩子	-7781
有能力	-7782
你家	-7783
卖给	-7784
喝杯	-7785
在上	-7786
年底	-7787
患有	-7788
可乐	-7789
神话	-7790
的人物	-7791
十五	-7792
▁香港	-7793
吃晚饭	-7794
是这样的	-7795
一面	-7796
万人	-7797
当年	-7798
披露	-7799
点钟	-7800
等于	-7801
表格	-7802
鉴定	-7803
打的	-7804
评级	-7805
都行	-7806
就好像	-7807
救护车	-7808
我的名字	-7809
▁9	-7810
了它	-7811
地毯	-7812
引用	-7813
不记得	-7814
的任务	-7815
英国人	-7816
米兰	-7817
读过	-7818
像这样	-7819
了自己的	-7820
听证	-7821
哭泣	-7822
安妮	-7823
很小	-7824
▁是否	-7825
我没事	-7826
这么说的	-7827
▁你只需要	-7828
47	-7829
内裤	-7830
的房间	-7831
我听	-7832
控制的	-7833
这么大	-7834
▁冷静点	-7835
▁因为你的	-7836
你在说什么	-7837
哈利	-7838
而又	-7839
两个月	-7840
可能有	-7841
什麽	-7842
大叫	-7843
步骤	-7844
还想	-7845
过夜	-7846
件事情	-7847
让我来	-7848
坐牢	-7849
而出	-7850
室友	-7851
要你	-7852
设定	-7853
▁管	-7854
东南	-7855
开除	-7856
待遇	-7857
你的话	-7858
半小时	-7859
反应堆	-7860
这地方	-7861
▁李	-7862
名声	-7863
并将	-7864
搞笑	-7865
艾伦	-7866
不太好	-7867
▁你记得	-7868
▁如果您	-7869
人心	-7870
而在	-7871
隧道	-7872
▁不仅	-7873
你一定	-7874
偶像	-7875
走过	-7876
不公平	-7877
我的车	-7878
从前	-7879
峡谷	-7880
沙拉	-7881
窗口	-7882
的设计	-7883
能让你	-7884
如果你不	-7885
专心	-7886
▁回家	-7887
的不是	-7888
▁怎么会	-7889
扭曲	-7890
有意	-7891
漫画	-7892
破裂	-7893
鬼魂	-7894
什么人	-7895
几百	-7896
永恒	-7897
取消了	-7898
if	-7899
uc	-7900
吃过	-7901
监禁	-7902
▁第一	-7903
卫星电视	-7904
只需	-7905
周年	-7906
格拉	-7907
每日	-7908
汇报	-7909
静脉	-7910
广泛的	-7911
与他	-7912
此时	-7913
电话号码	-7914
可疑	-7915
史上	-7916
德华	-7917
你和我	-7918
大学生	-7919
没见过	-7920
微型	-7921
▁它会	-7922
听我的	-7923
ows	-7924
特先生	-7925
情愿	-7926
注入	-7927
纳粹	-7928
老了	-7929
艾米	-7930
途中	-7931
宝贝儿	-7932
的事儿	-7933
,,	-7934
来吗	-7935
来得	-7936
开启	-7937
厌倦了	-7938
真的是	-7939
▁是一个	-7940
和解	-7941
熨衣	-7942
大西洋	-7943
▁但是他们	-7944
所说	-7945
网球	-7946
赶到	-7947
▁别让	-7948
▁战争	-7949
嫌疑人	-7950
带我去	-7951
一日	-7952
天生	-7953
这首歌	-7954
无论如何	-7955
文档	-7956
部署	-7957
金发	-7958
▁假设	-7959
连锁	-7960
一直是	-7961
解决问题	-7962
尼尔	-7963
▁听到	-7964
全球经济	-7965
▁据我所知	-7966
ud	-7967
绳子	-7968
▁我不管	-7969
坚定	-7970
子女	-7971
延伸	-7972
ich	-7973
是不会	-7974
核武器	-7975
拉斯维加斯	-7976
▁直接	-7977
和中国	-7978
▁老	-7979
吉米	-7980
巧合	-7981
线上	-7982
节省	-7983
任何事情	-7984
王国	-7985
福德	-7986
道上	-7987
不相信	-7988
可持续	-7989
做点什么	-7990
33	-7991
参赛	-7992
身后	-7993
在纽约	-7994
党派	-7995
▁每位	-7996
▁差不多	-7997
保险公司	-7998
▁凡	-7999
差距	-8000
甜点	-8001
▁以为	-8002
经历过	-8003
根本没有	-8004
还有很多	-8005
享有	-8006
今日	-8007
供给	-8008
得要	-8009
长达	-8010
▁这家	-8011
的过程	-8012
沙特	-8013
但现在	-8014
的政策	-8015
傻子	-8016
撒冷	-8017
有何	-8018
看待	-8019
美人	-8020
已成为	-8021
没人会	-8022
没必要	-8023
大多数人	-8024
▁W	-8025
大门	-8026
市区	-8027
拳击	-8028
琼斯	-8029
紧密	-8030
惊人的	-8031
我就要	-8032
▁别让我	-8033
不定	-8034
盟友	-8035
▁你一	-8036
人们对	-8037
幽灵	-8038
耶路	-8039
感恩节	-8040
二氧化碳	-8041
ba	-8042
半个	-8043
塔利班	-8044
2001	-8045
你的时候	-8046
▁如果我是	-8047
时会	-8048
很久了	-8049
的产品	-8050
需要我	-8051
来找我	-8052
戴上	-8053
说这	-8054
你不想	-8055
看看你	-8056
仍旧	-8057
带回	-8058
鲍勃	-8059
▁你将	-8060
夏威	-8061
和社会	-8062
亚当	-8063
孤儿	-8064
山脉	-8065
恐吓	-8066
陷阱	-8067
隔壁	-8068
半夜	-8069
考察	-8070
西北	-8071
与中国	-8072
母亲的	-8073
▁告诉她	-8074
奇的	-8075
是以	-8076
粒子	-8077
通往	-8078
▁但它	-8079
一同	-8080
储存	-8081
著作	-8082
个人的	-8083
看电视	-8084
聪明的	-8085
葡萄牙	-8086
▁他总是	-8087
▁她已经	-8088
委员会的	-8089
▁佩	-8090
位的	-8091
切除	-8092
本文	-8093
你跟	-8094
差别	-8095
很长	-8096
推翻	-8097
集合	-8098
频繁	-8099
▁就为了	-8100
垄断	-8101
复仇	-8102
房价	-8103
夏威夷	-8104
跟我来	-8105
▁1	-8106
之路	-8107
的法律	-8108
发生什么	-8109
▁穆	-8110
瑟琳	-8111
箱里	-8112
胞胎	-8113
▁有很多	-8114
你太	-8115
噪音	-8116
维修	-8117
被你	-8118
迟了	-8119
的最大	-8120
认识他	-8121
冬季	-8122
精灵	-8123
陈述	-8124
目的地	-8125
按摩浴缸	-8126
发光	-8127
了出来	-8128
在地上	-8129
开始吧	-8130
耶路撒冷	-8131
局长	-8132
罗德	-8133
失踪了	-8134
政治家	-8135
的路上	-8136
存活	-8137
了这些	-8138
有一种	-8139
都知道	-8140
忘掉	-8141
▁他应该	-8142
为其	-8143
要把	-8144
▁就是	-8145
的变化	-8146
搜寻	-8147
无力	-8148
泰勒	-8149
无辜的	-8150
▁你不要	-8151
iphone	-8152
仆人	-8153
过吗	-8154
95	-8155
等级	-8156
美妙	-8157
迪斯	-8158
你给我	-8159
很简单	-8160
特定的	-8161
的说法	-8162
数千	-8163
▁ch	-8164
他们对	-8165
▁v	-8166
▁已	-8167
菲尔	-8168
迎接	-8169
成员国	-8170
你自己的	-8171
▁空	-8172
水中	-8173
她是个	-8174
▁当然不是	-8175
击中	-8176
被困	-8177
赶上	-8178
随机	-8179
熨衣板	-8180
▁就因为	-8181
我们还是	-8182
传送	-8183
官僚	-8184
萧条	-8185
▁我之前	-8186
越来越多	-8187
们在	-8188
做梦	-8189
变暖	-8190
宾馆	-8191
被判	-8192
违法	-8193
克劳	-8194
吃点	-8195
当天	-8196
掩饰	-8197
蔓延	-8198
首要	-8199
一个女人	-8200
》,	-8201
即可	-8202
恶劣	-8203
庞大的	-8204
我在想	-8205
的增长	-8206
别墅	-8207
生病	-8208
所作所为	-8209
外汇	-8210
室的	-8211
我先	-8212
每晚	-8213
采取行动	-8214
▁依	-8215
灭绝	-8216
晓得	-8217
凭什么	-8218
回收	-8219
话了	-8220
从一个	-8221
的行动	-8222
65	-8223
▁萨	-8224
中华	-8225
杀掉	-8226
淇淋	-8227
六个	-8228
太大	-8229
他可以	-8230
我会的	-8231
由此	-8232
荣耀	-8233
▁想象	-8234
用这个	-8235
予以	-8236
玩家	-8237
而我	-8238
▁只要	-8239
Facebook	-8240
喜爱	-8241
性爱	-8242
有益	-8243
职务	-8244
▁你在干什么	-8245
召开	-8246
在新	-8247
巴克	-8248
律宾	-8249
水和	-8250
精心	-8251
具尸体	-8252
引起了	-8253
数百万	-8254
疯狂的	-8255
该怎么	-8256
希望你能	-8257
哈里	-8258
职员	-8259
身处	-8260
并不意味着	-8261
晚会	-8262
▁我们还是	-8263
......。	-8264
中毒	-8265
法语	-8266
税务	-8267
缺点	-8268
飓风	-8269
的事业	-8270
作了	-8271
性质	-8272
的长	-8273
限于	-8274
不那么	-8275
各种各	-8276
菲律宾	-8277
面向	-8278
600	-8279
▁我问	-8280
再也不	-8281
▁尽管如此	-8282
场地	-8283
守护	-8284
▁不久	-8285
摄影师	-8286
欧洲的	-8287
▁他是我	-8288
我不得不	-8289
干杯	-8290
性命	-8291
被打	-8292
史密斯	-8293
增长的	-8294
印尼	-8295
童年	-8296
维多利亚	-8297
▁你就不能	-8298
处罚	-8299
此前	-8300
▁不了	-8301
▁如果不	-8302
▁当然是	-8303
恰恰	-8304
▁停止	-8305
丽莎白	-8306
做到了	-8307
看见你	-8308
▁得了吧	-8309
▁我想她	-8310
te	-8311
树木	-8312
▁他一	-8313
感谢你	-8314
支持者	-8315
▁家	-8316
找的	-8317
购物中心	-8318
卡特	-8319
友善	-8320
的呢	-8321
▁我其实	-8322
一轮	-8323
听你	-8324
得起	-8325
更是	-8326
来接	-8327
避开	-8328
内疚	-8329
挺好	-8330
▁当心	-8331
核电站	-8332
之夜	-8333
复兴	-8334
环节	-8335
认定	-8336
行为的	-8337
这事儿	-8338
▁你就会	-8339
▁当他们	-8340
了那	-8341
哪种	-8342
在说	-8343
格的	-8344
▁仅仅	-8345
国务院	-8346
用你的	-8347
毛巾	-8348
符号	-8349
您可以	-8350
你们这些	-8351
学到	-8352
签证	-8353
阿里	-8354
▁其他的	-8355
你先	-8356
和人	-8357
完蛋	-8358
将近	-8359
从这里	-8360
的一名	-8361
提供免费	-8362
就此	-8363
枕头	-8364
鼓舞	-8365
会怎样	-8366
了两	-8367
蜡烛	-8368
▁才能	-8369
但是他	-8370
只是为了	-8371
望远	-8372
老朋友	-8373
巨额	-8374
酒廊	-8375
吓坏了	-8376
的时刻	-8377
选择的	-8378
▁我帮你	-8379
不是一个	-8380
高盛	-8381
甚至是	-8382
小鬼	-8383
自治	-8384
roup	-8385
拖延	-8386
我就知道	-8387
▁E	-8388
凶器	-8389
引入	-8390
影像	-8391
根廷	-8392
说道	-8393
的活动	-8394
的要求	-8395
▁她觉得	-8396
放手	-8397
不对劲	-8398
起作用	-8399
办公室里	-8400
船只	-8401
不再是	-8402
杰克逊	-8403
▁我去找	-8404
不信	-8405
拉的	-8406
理工	-8407
融入	-8408
志愿者	-8409
▁兰	-8410
单词	-8411
奋斗	-8412
▁基于	-8413
摩托车	-8414
天呐	-8415
是否有	-8416
的角色	-8417
▁我原	-8418
马克思	-8419
破了	-8420
▁科学	-8421
拒绝了	-8422
橄榄球	-8423
出一	-8424
不同意	-8425
我不要	-8426
是没有	-8427
哈哈	-8428
时装	-8429
解开	-8430
你们会	-8431
做的一切	-8432
抵押贷款	-8433
▁卢	-8434
你有什么	-8435
几个星期	-8436
他那	-8437
后就	-8438
没说	-8439
选项	-8440
等不及	-8441
▁我去了	-8442
什么都没有	-8443
尔曼	-8444
提名	-8445
施工	-8446
也一样	-8447
决定了	-8448
经济衰退	-8449
▁金	-8450
寿命	-8451
市政	-8452
▁每人	-8453
▁直到	-8454
▁如果你的	-8455
▁我以为你	-8456
再去	-8457
撤离	-8458
谢了	-8459
他们将	-8460
会议室	-8461
当今	-8462
这间	-8463
不可避免	-8464
检查一下	-8465
丢失	-8466
不已	-8467
更改	-8468
柠檬	-8469
毕业生	-8470
的电影	-8471
▁因为在	-8472
执照	-8473
瑞克	-8474
▁你瞧	-8475
我说了	-8476
更重要	-8477
该地区	-8478
的一点	-8479
东北	-8480
小时内	-8481
准时	-8482
授予	-8483
▁技术	-8484
我要你	-8485
证明了	-8486
这么快	-8487
进来了	-8488
39	-8489
传达	-8490
大海	-8491
本能	-8492
雷斯	-8493
▁没错	-8494
创造了	-8495
我们了	-8496
宽松	-8497
格鲁	-8498
泄漏	-8499
避孕	-8500
▁你在这	-8501
▁如果我不	-8502
会说	-8503
来讲	-8504
繁殖	-8505
巴拉克	-8506
或其他	-8507
的压力	-8508
▁我也想	-8509
皇帝	-8510
ass	-8511
▁你不必	-8512
变得更加	-8513
好转	-8514
杀的	-8515
他就会	-8516
的人来说	-8517
寒冷	-8518
手枪	-8519
呼叫	-8520
撤销	-8521
的几	-8522
雅虎	-8523
打交道	-8524
留下了	-8525
土豆	-8526
机遇	-8527
都想	-8528
▁她不是	-8529
▁我朋友	-8530
▁曾	-8531
一体	-8532
便是	-8533
在家里	-8534
我非常	-8535
一架	-8536
了呢	-8537
和水	-8538
害的	-8539
金额	-8540
对美国	-8541
第一天	-8542
到处都是	-8543
indows	-8544
司令	-8545
接管	-8546
我们没	-8547
学科	-8548
洞穴	-8549
负面	-8550
做不到	-8551
▁我不觉得	-8552
内阁	-8553
单人	-8554
可见	-8555
日程	-8556
用途	-8557
寂寞	-8558
幕后	-8559
10%	-8560
他们有	-8561
到我的	-8562
和别人	-8563
负责任	-8564
高速互联网接入	-8565
前途	-8566
北约	-8567
坟墓	-8568
波特	-8569
▁通常	-8570
的银行	-8571
亮的	-8572
客观	-8573
挪威	-8574
跨国	-8575
上帝啊	-8576
望远镜	-8577
▁现	-8578
夹克	-8579
忏悔	-8580
格尔	-8581
他们已经	-8582
数目	-8583
注重	-8584
误解	-8585
高潮	-8586
▁可我	-8587
▁如果我能	-8588
总是在	-8589
▁所以我想	-8590
互动	-8591
的信	-8592
行程	-8593
完整的	-8594
董事长	-8595
▁也不是	-8596
是无	-8597
▁地球	-8598
和你谈谈	-8599
▁换句话说	-8600
年中	-8601
贵族	-8602
形成了	-8603
▁偶尔	-8604
对这个	-8605
建立了	-8606
共和党人	-8607
▁我是不是	-8608
给我打电话	-8609
测验	-8610
▁再来	-8611
▁可能会	-8612
▁哼	-8613
产权	-8614
你俩	-8615
扔掉	-8616
西兰	-8617
许可证	-8618
找到一个	-8619
一夜	-8620
人质	-8621
降临	-8622
了一条	-8623
最高的	-8624
▁我不会	-8625
巫师	-8626
十分钟	-8627
能看到	-8628
一度	-8629
会把	-8630
实质	-8631
山姆	-8632
悄悄	-8633
时不	-8634
此刻	-8635
诞生	-8636
写道	-8637
看他	-8638
穷人	-8639
▁别人	-8640
国际机场	-8641
我女儿	-8642
▁我们走	-8643
加大	-8644
复合	-8645
捕捉	-8646
书籍	-8647
得分	-8648
随之	-8649
一点儿	-8650
听上去	-8651
的人口	-8652
▁你知道她	-8653
af	-8654
实体	-8655
设想	-8656
以来的	-8657
已经是	-8658
一个男人	-8659
▁愿	-8660
利息	-8661
时我	-8662
是说	-8663
见见	-8664
饥饿	-8665
▁你知不知道	-8666
包里	-8667
善于	-8668
她吗	-8669
干脆	-8670
的歌	-8671
老头	-8672
▁女孩	-8673
▁帮助	-8674
被认为	-8675
一无所知	-8676
好点	-8677
观光	-8678
又一次	-8679
▁你要我	-8680
▁所有人	-8681
34	-8682
了啊	-8683
争夺	-8684
创立	-8685
这人	-8686
ton	-8687
反对派	-8688
好主意	-8689
该怎么办	-8690
为之	-8691
子宫	-8692
爱人	-8693
笑容	-8694
▁住手	-8695
和你在一起	-8696
更好地	-8697
▁我是一个	-8698
上楼	-8699
仁慈	-8700
半岛	-8701
服从	-8702
见鬼	-8703
▁埃	-8704
恐龙	-8705
更快	-8706
着迷	-8707
▁参加	-8708
下一步	-8709
你的手	-8710
▁她不会	-8711
▁怪	-8712
住院	-8713
卧底	-8714
▁现代	-8715
网站上	-8716
▁你准备	-8717
分辨	-8718
烹饪	-8719
▁穿过	-8720
屋子里	-8721
封闭	-8722
当做	-8723
渠道	-8724
要来	-8725
雅图	-8726
不仅仅	-8727
及其他	-8728
成这样	-8729
这么久	-8730
▁所有这些	-8731
全家	-8732
变为	-8733
影院	-8734
知名	-8735
这片	-8736
不适合	-8737
▁唯一的	-8738
的那个人	-8739
CE	-8740
傲慢	-8741
发放	-8742
克林顿	-8743
我也会	-8744
竞争力	-8745
ox	-8746
到此	-8747
打造	-8748
氧气	-8749
的死	-8750
纳米	-8751
做一些	-8752
山上	-8753
真心	-8754
窒息	-8755
财政部	-8756
▁强	-8757
卡因	-8758
引爆	-8759
撞击	-8760
数以	-8761
登陆	-8762
▁她没有	-8763
▁九	-8764
奶油	-8765
蜜蜂	-8766
高清	-8767
一整天	-8768
希望我	-8769
那个女孩	-8770
机票	-8771
他们了	-8772
存在于	-8773
零售商	-8774
国家安全	-8775
时就	-8776
然后再	-8777
的话题	-8778
▁就像是	-8779
▁我向你保证	-8780
右侧	-8781
喝的	-8782
抓紧	-8783
莱斯	-8784
蝴蝶	-8785
我肯定	-8786
得去	-8787
有三	-8788
瀑布	-8789
紧紧	-8790
这块	-8791
都市	-8792
一定很	-8793
为基础	-8794
不下	-8795
全体	-8796
回避	-8797
尔摩	-8798
戴维	-8799
穿的	-8800
与其他	-8801
相信他	-8802
▁世界上	-8803
▁所	-8804
评委	-8805
冰淇淋	-8806
建立一个	-8807
上诉	-8808
前来	-8809
手续	-8810
让人们	-8811
床单	-8812
自主	-8813
专注于	-8814
亚特兰	-8815
姑娘们	-8816
▁我们先	-8817
书的	-8818
珍妮	-8819
赞美	-8820
阶层	-8821
▁客房	-8822
小家伙	-8823
时间来	-8824
还记得	-8825
是多么	-8826
别的地方	-8827
▁女士们先生们	-8828
卑鄙	-8829
向上	-8830
▁北京	-8831
显示出	-8832
就是一个	-8833
高尔夫球	-8834
哪怕	-8835
就象	-8836
才华	-8837
仍然是	-8838
的做法	-8839
▁他怎么	-8840
▁我在这	-8841
你为	-8842
防护	-8843
预料	-8844
总统的	-8845
做完	-8846
杰瑞	-8847
清洗	-8848
过多	-8849
昂贵的	-8850
是一家	-8851
潜在的	-8852
那孩子	-8853
那我们	-8854
▁今天是	-8855
▁我今晚	-8856
传真	-8857
拼命	-8858
指引	-8859
有几	-8860
私营	-8861
贿赂	-8862
过渡	-8863
▁再次	-8864
对这些	-8865
的企业	-8866
▁这是一个	-8867
在场	-8868
▁别动	-8869
▁回来	-8870
使我们	-8871
▁我从来没有	-8872
▁博	-8873
今后	-8874
头部	-8875
学金	-8876
就越	-8877
等下	-8878
美国政府	-8879
考虑一下	-8880
▁你一定要	-8881
种类	-8882
要花	-8883
▁经过	-8884
你不用	-8885
对冲基金	-8886
传输	-8887
深度	-8888
私有	-8889
追随	-8890
的基本	-8891
修建	-8892
着陆	-8893
脚步	-8894
▁回去	-8895
我自己的	-8896
▁点	-8897
的重要性	-8898
▁你看上去	-8899
景象	-8900
▁不是吧	-8901
▁我们把	-8902
我一直在	-8903
▁沿	-8904
中文	-8905
剥夺	-8906
外表	-8907
察觉	-8908
竞技	-8909
他们说	-8910
向她	-8911
定价	-8912
平面	-8913
弗里	-8914
氛围	-8915
▁大卫	-8916
不断地	-8917
有点儿	-8918
的小孩	-8919
▁你也许	-8920
单纯	-8921
艘船	-8922
▁彼得	-8923
去那里	-8924
的最新	-8925
以及其他	-8926
她想	-8927
羞辱	-8928
超出	-8929
不停地	-8930
飞机上	-8931
▁我不确定	-8932
密度	-8933
界的	-8934
部位	-8935
▁他将	-8936
▁我敢肯定	-8937
不说	-8938
低估	-8939
否决	-8940
布置	-8941
眼中	-8942
发出的	-8943
文化的	-8944
品尝	-8945
油价	-8946
▁立刻	-8947
你今天	-8948
妈妈的	-8949
你有没有	-8950
▁因为你是	-8951
▁所有人都	-8952
某种程度上	-8953
典礼	-8954
床垫	-8955
我为	-8956
欺诈	-8957
▁我们很	-8958
▁如果你要	-8959
了对	-8960
化石	-8961
波斯	-8962
约瑟	-8963
自在	-8964
的比赛	-8965
他的名字	-8966
匹马	-8967
可信	-8968
液体	-8969
花生	-8970
一定的	-8971
公司和	-8972
▁好消息	-8973
书面	-8974
伦理	-8975
心跳	-8976
怪的	-8977
蠢货	-8978
▁得了	-8979
主流	-8980
上个月	-8981
场比赛	-8982
就是在	-8983
2002	-8984
仇恨	-8985
固醇	-8986
用力	-8987
▁他们在	-8988
▁曼	-8989
死吧	-8990
违背	-8991
着一个	-8992
心理医生	-8993
▁"	-8994
生物学	-8995
调查局	-8996
孙子	-8997
托尼	-8998
▁今早	-8999
▁你们不能	-9000
情景	-9001
投机	-9002
去世了	-9003
过你的	-9004
看看这个	-9005
▁你什么意思	-9006
债权	-9007
古典	-9008
就把	-9009
他知道	-9010
职业生涯	-9011
后退	-9012
她还	-9013
手表	-9014
抽屉	-9015
狂热	-9016
研究了	-9017
藏起来	-9018
离开这儿	-9019
▁弄	-9020
共识	-9021
欢呼	-9022
▁你还没	-9023
▁你还好吗	-9024
▁你怎么知道	-9025
双重	-9026
末日	-9027
的女	-9028
紧要	-9029
见识	-9030
任何地方	-9031
周前	-9032
小狗	-9033
想在	-9034
杀他	-9035
项链	-9036
的其他	-9037
自然的	-9038
气象	-9039
些东西	-9040
我从没	-9041
身份证	-9042
▁你看见	-9043
却不	-9044
惊人	-9045
而去	-9046
门外	-9047
运营商	-9048
之间的关系	-9049
▁受	-9050
害羞	-9051
将他	-9052
怀念	-9053
林肯	-9054
着我的	-9055
含义	-9056
树上	-9057
▁你不该	-9058
救了	-9059
瞄准	-9060
视线	-9061
酗酒	-9062
你们是	-9063
还是个	-9064
▁即使是	-9065
的基础上	-9066
主角	-9067
影子	-9068
情局	-9069
玩了	-9070
是否会	-9071
的一半	-9072
目击者	-9073
阿根廷	-9074
发达国家	-9075
我们不会	-9076
44	-9077
只好	-9078
已在	-9079
弟兄	-9080
弱的	-9081
贪婪	-9082
以上的	-9083
。“	-9084
保释	-9085
领带	-9086
他把	-9087
尽了	-9088
迪克	-9089
合法的	-9090
▁他需要	-9091
他们不会	-9092
每一个人	-9093
▁尤	-9094
忧虑	-9095
蝙蝠	-9096
协商	-9097
天天	-9098
损坏	-9099
玩得	-9100
的有	-9101
的马	-9102
解剖	-9103
喝醉了	-9104
我记得	-9105
十足	-9106
又要	-9107
尊严	-9108
滥用	-9109
目睹	-9110
野兽	-9111
拥有的	-9112
▁我宁愿	-9113
圣诞老人	-9114
的大部分	-9115
他所	-9116
理会	-9117
眼光	-9118
账单	-9119
迷失	-9120
▁你知道么	-9121
发生的事情	-9122
一看	-9123
这部	-9124
在学校	-9125
常见的	-9126
萨克	-9127
在上面	-9128
我们正在	-9129
各地的	-9130
她已经	-9131
周边	-9132
坏蛋	-9133
姓名	-9134
急性	-9135
辅导	-9136
小丑	-9137
巴斯	-9138
控告	-9139
盖茨	-9140
在这些	-9141
▁他喜欢	-9142
厂商	-9143
后代	-9144
她能	-9145
开火	-9146
格斯	-9147
赛车	-9148
这笔	-9149
逃走	-9150
▁哪儿	-9151
▁站在	-9152
酒店内	-9153
民间	-9154
▁台湾	-9155
他认为	-9156
几年前	-9157
▁即	-9158
的无	-9159
und	-9160
象征性	-9161
烧烤	-9162
而死	-9163
就知道	-9164
合作伙伴	-9165
口音	-9166
通行	-9167
馅饼	-9168
的房子	-9169
很大程度上	-9170
pa	-9171
查出	-9172
走走	-9173
准备的	-9174
地下室	-9175
▁能	-9176
排队	-9177
接吻	-9178
直播	-9179
再一次	-9180
美国和	-9181
跟你们	-9182
▁在这儿	-9183
有线电视	-9184
ph	-9185
占有	-9186
吻合	-9187
美术	-9188
还将	-9189
ian	-9190
真不错	-9191
▁我好像	-9192
套房酒店	-9193
船员	-9194
轻轻	-9195
丰盛的	-9196
有兴趣	-9197
▁不需要	-9198
▁相	-9199
地盘	-9200
我真的很	-9201
家乡	-9202
走上	-9203
向我们	-9204
想让我	-9205
...?	-9206
每月	-9207
郊区	-9208
链接	-9209
下令	-9210
守卫	-9211
帅哥	-9212
枪支	-9213
较为	-9214
什么也	-9215
给他的	-9216
西雅图	-9217
尾巴	-9218
要用	-9219
获得的	-9220
这个吗	-9221
画的	-9222
我当然	-9223
这个的	-9224
你就可以	-9225
好象	-9226
实用	-9227
幼儿	-9228
普林	-9229
陆战	-9230
▁相信	-9231
你肯定	-9232
我讨厌	-9233
转移到	-9234
▁可是我	-9235
▁我是在	-9236
我不需要	-9237
准备好了吗	-9238
往前	-9239
像一个	-9240
▁你到底	-9241
▁论	-9242
仪器	-9243
深的	-9244
纠纷	-9245
蒙古	-9246
边上	-9247
顺序	-9248
▁其它	-9249
口袋里	-9250
看我的	-9251
音乐会	-9252
▁王	-9253
上演	-9254
抵制	-9255
文献	-9256
闯入	-9257
我只想	-9258
现在已经	-9259
从他	-9260
▁布鲁	-9261
▁每当	-9262
大使馆	-9263
带走了	-9264
杀人犯	-9265
▁索	-9266
场面	-9267
失误	-9268
巴巴	-9269
弱点	-9270
找了	-9271
ine	-9272
他们也	-9273
▁二	-9274
升值	-9275
租赁	-9276
适当	-9277
活下去	-9278
的人的	-9279
觉得我	-9280
做饭	-9281
废弃	-9282
集会	-9283
加入了	-9284
管理局	-9285
▁我是来	-9286
▁我们还有	-9287
秋天	-9288
签订	-9289
给您	-9290
远程	-9291
▁不同	-9292
货币政策	-9293
停在	-9294
山谷	-9295
CEO	-9296
改变主意	-9297
▁贝	-9298
天文	-9299
诸多	-9300
香烟	-9301
的交易	-9302
那东西	-9303
▁你们不	-9304
开采	-9305
莎拉	-9306
难忘	-9307
▁并且	-9308
pe	-9309
丽的	-9310
对策	-9311
所未	-9312
打死	-9313
航行	-9314
话说	-9315
做生意	-9316
我是谁	-9317
高尔夫球场	-9318
伦斯	-9319
情节	-9320
被关	-9321
视角	-9322
那会	-9323
火车站	-9324
痛苦的	-9325
的努力	-9326
发现自己	-9327
,《	-9328
诗歌	-9329
谣言	-9330
劳工	-9331
处女	-9332
落的	-9333
▁从我	-9334
卫生间	-9335
和晚餐	-9336
我都会	-9337
让别人	-9338
这个了	-9339
布雷	-9340
这可	-9341
就是了	-9342
教育的	-9343
电视机	-9344
确实是	-9345
都已经	-9346
▁我叫你	-9347
很有意思	-9348
发展中国家	-9349
商标	-9350
提案	-9351
梦中	-9352
▁你妈	-9353
▁至于	-9354
我听说	-9355
显而易	-9356
说真的	-9357
效益	-9358
洛斯	-9359
荒唐	-9360
连环	-9361
过一个	-9362
失陪	-9363
放大	-9364
气球	-9365
的神	-9366
知情	-9367
致的	-9368
越好	-9369
▁你所	-9370
搞什么	-9371
你能不能	-9372
给你打电话	-9373
无视	-9374
豁免	-9375
大号床	-9376
可供	-9377
就是要	-9378
▁你只能	-9379
▁你好像	-9380
一个问题	-9381
我也不知道	-9382
▁嘘	-9383
出局	-9384
力气	-9385
大地	-9386
疗效	-9387
盘子	-9388
做出了	-9389
▁所以她	-9390
有利于	-9391
多长时间	-9392
也好	-9393
伪造	-9394
出庭	-9395
认证	-9396
▁以色列	-9397
慢性	-9398
诗人	-9399
你们能	-9400
英里的	-9401
新兴市场	-9402
ss	-9403
和新	-9404
快去	-9405
烧了	-9406
的门	-9407
非凡	-9408
ohn	-9409
成一个	-9410
非常重要	-9411
▁但如果你	-9412
充电	-9413
吩咐	-9414
本月	-9415
留意	-9416
雷达	-9417
▁布莱	-9418
▁你今晚	-9419
▁他们没有	-9420
可归	-9421
第六	-9422
食用	-9423
为您提供	-9424
今天早上	-9425
告诉我你	-9426
变得越来越	-9427
前妻	-9428
真诚	-9429
脱衣	-9430
的父亲	-9431
▁她肯定	-9432
代谢	-9433
奥林	-9434
支配	-9435
他们能	-9436
▁你不应该	-9437
公务	-9438
再多	-9439
很想	-9440
激发	-9441
的三	-9442
800	-9443
并不想	-9444
无能为	-9445
个子	-9446
会见	-9447
受损	-9448
ina	-9449
▁co	-9450
你是在	-9451
史蒂夫	-9452
想什么	-9453
四分之一	-9454
重新开始	-9455
▁我都不知道	-9456
业余	-9457
四周	-9458
开个	-9459
面部	-9460
顶级	-9461
有用的	-9462
迄今为止	-9463
▁我在这里	-9464
可口	-9465
有空	-9466
的电	-9467
赠送	-9468
▁我听说你	-9469
丰田	-9470
声誉	-9471
快餐	-9472
史以来	-9473
实在太	-9474
时期的	-9475
少女	-9476
手法	-9477
菲利	-9478
保护你	-9479
流动性	-9480
红色的	-9481
一时	-9482
优点	-9483
标题	-9484
跟随	-9485
一团糟	-9486
吃午饭	-9487
的地位	-9488
迷人的	-9489
▁别这么	-9490
就可以了	-9491
说了什么	-9492
却在	-9493
延续	-9494
景色	-9495
歇尔	-9496
路的	-9497
化合物	-9498
的人吗	-9499
我们只是	-9500
别管	-9501
惊奇	-9502
谁能	-9503
▁反对	-9504
的生命	-9505
召集	-9506
斯卡	-9507
晚宴	-9508
星期六	-9509
那是个	-9510
圣节	-9511
火鸡	-9512
他只是	-9513
对你说	-9514
▁你当然	-9515
▁佛	-9516
偏见	-9517
勉强	-9518
同步	-9519
她也	-9520
小学	-9521
左侧	-9522
健身房	-9523
是可以	-9524
少了	-9525
野蛮	-9526
长久	-9527
托马斯	-9528
致命的	-9529
克罗	-9530
出手	-9531
帮上	-9532
来个	-9533
绿灯	-9534
都得	-9535
金正	-9536
短缺	-9537
资讯	-9538
事情的	-9539
然后就	-9540
的管理	-9541
你是怎么	-9542
两只	-9543
和谁	-9544
走私	-9545
比我们	-9546
与之	-9547
亲近	-9548
它将	-9549
杯子	-9550
终身	-9551
已经成为	-9552
经济发展	-9553
呕吐	-9554
心了	-9555
急诊	-9556
智力	-9557
转身	-9558
迷惑	-9559
医学院	-9560
最棒的	-9561
的规定	-9562
▁现在他	-9563
▁世	-9564
借贷	-9565
女郎	-9566
星期一	-9567
让我的	-9568
▁'	-9569
不应	-9570
曾是	-9571
脚趾	-9572
▁我已	-9573
▁意大利	-9574
不顾	-9575
进入了	-9576
▁把这个	-9577
反射	-9578
术语	-9579
诺斯	-9580
外国人	-9581
的员工	-9582
那以后	-9583
带子	-9584
等候	-9585
你让我	-9586
我了解	-9587
比较好	-9588
禁令	-9589
西南	-9590
黑客	-9591
准备了	-9592
双胞胎	-9593
形成的	-9594
说不定	-9595
▁华盛顿	-9596
ct	-9597
▁安静	-9598
友好的	-9599
服务员	-9600
的数量	-9601
他们可以	-9602
凶杀	-9603
分支	-9604
▁在这种	-9605
伤亡	-9606
北美	-9607
但没有	-9608
处理的	-9609
yn	-9610
▁正	-9611
乔伊	-9612
尽的	-9613
感应	-9614
我用	-9615
养老金	-9616
肯尼迪	-9617
监管机构	-9618
住的	-9619
克鲁	-9620
匿名	-9621
叛徒	-9622
四年	-9623
忽然	-9624
战役	-9625
画家	-9626
给出	-9627
其它的	-9628
2013	-9629
宝石	-9630
救我	-9631
突击	-9632
那是我	-9633
▁关	-9634
告别	-9635
▁他正在	-9636
不是你的	-9637
后备	-9638
教室	-9639
▁你这么	-9640
你看起来	-9641
▁你在这里	-9642
比这	-9643
找到她	-9644
的意思	-9645
一些东西	-9646
▁你也知道	-9647
▁我看到了	-9648
任期	-9649
好笑	-9650
孤立	-9651
宁静	-9652
悲惨	-9653
施加	-9654
漏洞	-9655
今年的	-9656
亏损	-9657
你妈	-9658
去吗	-9659
一般的	-9660
日本的	-9661
分的	-9662
发疯	-9663
比起	-9664
▁尸体	-9665
▁神经	-9666
一个新	-9667
有那么	-9668
外科医生	-9669
原料	-9670
无处	-9671
有毒	-9672
火焰	-9673
追查	-9674
▁穿上	-9675
他是谁	-9676
别忘了	-9677
还有个	-9678
休假	-9679
卡片	-9680
警惕	-9681
闹了	-9682
雕像	-9683
承包商	-9684
▁我不太	-9685
▁我马上	-9686
延迟	-9687
效力	-9688
曝光	-9689
碎了	-9690
不只是	-9691
根本没	-9692
帮助我们	-9693
生活方式	-9694
瘫痪	-9695
轰炸	-9696
喜欢他	-9697
在伦敦	-9698
开玩笑吧	-9699
啦啦	-9700
热衷	-9701
照看	-9702
登上	-9703
▁一群	-9704
伴随着	-9705
地里	-9706
奥利	-9707
尔森	-9708
差劲	-9709
拥挤	-9710
硬件	-9711
▁她没	-9712
奖学金	-9713
引发了	-9714
当然了	-9715
▁我很想	-9716
▁富	-9717
观测	-9718
量子	-9719
难受	-9720
安东尼	-9721
我的小	-9722
而来的	-9723
我们不是	-9724
的时候就	-9725
仲裁	-9726
你再	-9727
保卫	-9728
切断	-9729
点燃	-9730
腾腾	-9731
闪电	-9732
▁学习	-9733
病人的	-9734
你是对的	-9735
的时候我	-9736
遥控	-9737
还是会	-9738
▁如果这	-9739
冷却	-9740
化和	-9741
半年	-9742
收养	-9743
ley	-9744
你只是	-9745
别说了	-9746
我的错	-9747
好些	-9748
预感	-9749
战争中	-9750
现在我	-9751
睡不着	-9752
非常感谢	-9753
压根	-9754
吃掉	-9755
球迷	-9756
脱掉	-9757
闻名	-9758
不用了	-9759
也不要	-9760
接受的	-9761
看出来	-9762
看到我	-9763
科医生	-9764
还包括	-9765
长大的	-9766
我还以为	-9767
▁花	-9768
一向	-9769
谁的	-9770
里亚	-9771
ice	-9772
▁上海	-9773
爱德华	-9774
天下	-9775
导师	-9776
皮特	-9777
课堂	-9778
是关于	-9779
在我身上	-9780
▁来	-9781
峰会	-9782
ong	-9783
振作	-9784
▁本周	-9785
▁我把你	-9786
丢掉	-9787
植入	-9788
让步	-9789
冷静点	-9790
忘记了	-9791
我在一起	-9792
▁我可不会	-9793
坚决	-9794
官司	-9795
旁观	-9796
无情	-9797
西西	-9798
▁她也	-9799
保守党	-9800
▁上个月	-9801
很有可能	-9802
▁但我觉得	-9803
传感	-9804
其在	-9805
勒斯	-9806
多元	-9807
男士	-9808
不存在	-9809
女性的	-9810
宗商品	-9811
此而已	-9812
ment	-9813
▁199	-9814
▁你这样	-9815
一分	-9816
上千	-9817
人力	-9818
他都	-9819
低调	-9820
单元	-9821
海边	-9822
逼我	-9823
上台	-9824
变异	-9825
它能	-9826
生成	-9827
非得	-9828
交给我	-9829
普通人	-9830
的人类	-9831
宁可	-9832
法则	-9833
注视	-9834
滑稽	-9835
自尊	-9836
基督徒	-9837
适当的	-9838
1,	-9839
坦克	-9840
进而	-9841
的迹象	-9842
面临的	-9843
▁出发地	-9844
▁我得去	-9845
可以看到	-9846
亲吻	-9847
房租	-9848
民意	-9849
穿了	-9850
条件下	-9851
一个孩子	-9852
英寸液晶电视	-9853
奢华	-9854
▁是在	-9855
多少人	-9856
就是我	-9857
的反应	-9858
他们就会	-9859
治安	-9860
派人	-9861
你的车	-9862
集中在	-9863
▁在中国	-9864
地在	-9865
拜拜	-9866
也无法	-9867
我看见	-9868
政府官员	-9869
热华夫饼	-9870
取了	-9871
点子	-9872
礼品	-9873
你这么	-9874
她没有	-9875
怎么想	-9876
一个朋友	-9877
无能为力	-9878
▁所以我才	-9879
裁判	-9880
西藏	-9881
把那个	-9882
提高了	-9883
▁我并不	-9884
不仅仅是	-9885
二的	-9886
太久	-9887
巨人	-9888
样品	-9889
说起	-9890
银河	-9891
感到很	-9892
▁家庭	-9893
▁我让你	-9894
听我	-9895
点心	-9896
▁这样的	-9897
买下	-9898
厌烦	-9899
姿态	-9900
萨拉	-9901
▁承认	-9902
▁神父	-9903
交易的	-9904
听你的	-9905
弗吉尼亚	-9906
还有其他	-9907
举止	-9908
召唤	-9909
尽头	-9910
马车	-9911
的自由	-9912
通常是	-9913
不是什么	-9914
几乎没有	-9915
46	-9916
▁a	-9917
名义	-9918
年间	-9919
悬崖	-9920
此举	-9921
在未来	-9922
简直是	-9923
▁探	-9924
好过	-9925
帕特	-9926
流氓	-9927
游览	-9928
int	-9929
▁我从来	-9930
▁我把他	-9931
法官大人	-9932
奉献	-9933
就走	-9934
昂贵	-9935
镇静	-9936
可以让	-9937
ivers	-9938
▁所以他们	-9939
从头	-9940
闻到	-9941
后面的	-9942
周围的	-9943
▁N	-9944
一千	-9945
点击	-9946
要想	-9947
ash	-9948
在英国	-9949
要有	-9950
ist	-9951
你就能	-9952
沃尔玛	-9953
跟着我	-9954
▁是为了	-9955
先进	-9956
前提	-9957
扇门	-9958
的和	-9959
运送	-9960
这款	-9961
▁一张	-9962
▁不敢	-9963
小冰箱	-9964
▁我们俩	-9965
▁我听见	-9966
勒索	-9967
普京	-9968
着了	-9969
起到	-9970
▁究竟	-9971
世界杯	-9972
了解我	-9973
事件的	-9974
这孩子	-9975
好看	-9976
教皇	-9977
组建	-9978
西蒙	-9979
类似于	-9980
▁你甚至	-9981
炫耀	-9982
轻微	-9983
极大的	-9984
的地区	-9985
▁我女儿	-9986
▁我昨晚	-9987
你的生活	-9988
会来	-9989
公交	-9990
同盟	-9991
杀你	-9992
电源	-9993
留给	-9994
幸存者	-9995
应该在	-9996
自身的	-9997
重大的	-9998
▁麦	-9999
卷入	-10000
演说	-10001
我是在	-10002
行业的	-10003
分泌	-10004
救济	-10005
朝着	-10006
转到	-10007
香水	-10008
▁奇怪	-10009
众议院	-10010
死亡的	-10011
的客房	-10012
▁因为我不	-10013
卡梅	-10014
强度	-10015
收缩	-10016
教导	-10017
问了	-10018
先进的	-10019
图表	-10020
安置	-10021
约定	-10022
介意我	-10023
基本的	-10024
信托	-10025
右手	-10026
那份	-10027
▁国家	-10028
斯坦福	-10029
▁你难道	-10030
你最	-10031
绘画	-10032
还未	-10033
▁当初	-10034
自以为	-10035
一次机会	-10036
49	-10037
医药	-10038
外出	-10039
很忙	-10040
马来	-10041
▁竟然	-10042
十八	-10043
岛的	-10044
无礼	-10045
服役	-10046
村民	-10047
碰巧	-10048
离家	-10049
联赛	-10050
▁他和	-10051
▁医院	-10052
我们想	-10053
我无法	-10054
通过了	-10055
保管	-10056
可悲	-10057
可行	-10058
处方	-10059
欺负	-10060
毒贩	-10061
轮椅	-10062
使用了	-10063
所需的	-10064
,5	-10065
专栏	-10066
僵尸	-10067
制片	-10068
念头	-10069
价值观	-10070
你是说	-10071
出去的	-10072
清楚了	-10073
你的帮助	-10074
就想	-10075
批判	-10076
▁相比	-10077
上大学	-10078
搞定了	-10079
是个大	-10080
还是要	-10081
过滤	-10082
▁儿子	-10083
现有的	-10084
第三个	-10085
做好准备	-10086
贝斯特韦斯特普拉斯	-10087
▁年	-10088
不不	-10089
中部	-10090
做错	-10091
肝脏	-10092
里去	-10093
▁原谅	-10094
想不到	-10095
我们对	-10096
战争的	-10097
那我就	-10098
之人	-10099
合唱	-10100
开关	-10101
排练	-10102
必须在	-10103
理论上	-10104
▁你居然	-10105
▁俄罗斯	-10106
午餐和晚餐	-10107
4.	-10108
ok	-10109
专辑	-10110
压缩	-10111
时髦	-10112
消极	-10113
骗我	-10114
▁或者是	-10115
中枪	-10116
保住	-10117
症的	-10118
露出	-10119
高效	-10120
家可归	-10121
跟他说	-10122
这可是	-10123
于此	-10124
可可	-10125
宏观	-10126
抱着	-10127
行走	-10128
装了	-10129
看你的	-10130
假日	-10131
打仗	-10132
花在	-10133
old	-10134
是多少	-10135
▁把它们	-10136
▁联合国	-10137
在一起的	-10138
sk	-10139
触摸	-10140
诡异	-10141
▁弗兰克	-10142
我知道了	-10143
接手	-10144
脱了	-10145
▁仔细	-10146
你也是	-10147
山羊	-10148
齐全	-10149
舞台上	-10150
运动的	-10151
陪你	-10152
▁一年	-10153
▁我不该	-10154
人说	-10155
充斥	-10156
后门	-10157
听的	-10158
定居	-10159
路边	-10160
如果他们	-10161
不当	-10162
中被	-10163
停留	-10164
境内	-10165
最早	-10166
民事	-10167
物浦	-10168
良心	-10169
高校	-10170
911	-10171
▁两位	-10172
我为什么	-10173
很高兴见到你	-10174
勃勃	-10175
夜间	-10176
幅画	-10177
找找	-10178
歌唱	-10179
生效	-10180
虔诚	-10181
下场	-10182
再度	-10183
玩玩	-10184
红酒	-10185
影响到	-10186
的形式	-10187
糟透了	-10188
还好吗	-10189
▁但你们	-10190
绝大多数	-10191
这些都是	-10192
打电话给你	-10193
鸡肉	-10194
你的事	-10195
激烈的	-10196
这种人	-10197
这些问题	-10198
▁你不需要	-10199
▁丹	-10200
听众	-10201
烈的	-10202
end	-10203
▁好多	-10204
沙发上	-10205
壁炉	-10206
▁欢迎	-10207
不是么	-10208
我完全	-10209
英寸平板电视	-10210
产物	-10211
激活	-10212
狗屎	-10213
选的	-10214
那件	-10215
▁我们刚	-10216
▁我妻子	-10217
组成部分	-10218
▁没	-10219
呆着	-10220
席位	-10221
打球	-10222
敦促	-10223
绝不	-10224
不是个	-10225
理解的	-10226
知道她	-10227
与人	-10228
再谈	-10229
本事	-10230
桌子上	-10231
乱了	-10232
免得	-10233
听了	-10234
死掉	-10235
走去	-10236
专业的	-10237
爱好者	-10238
仅有	-10239
修女	-10240
修好	-10241
属性	-10242
师父	-10243
杰西	-10244
温室	-10245
等的	-10246
不好的	-10247
离开我	-10248
石油公司	-10249
吓到	-10250
埃德	-10251
桑那	-10252
更具	-10253
有其	-10254
浑身	-10255
罗宾	-10256
▁有可能	-10257
同行	-10258
星际	-10259
▁我不希望	-10260
一组	-10261
光线	-10262
宣誓	-10263
把所有	-10264
▁接下来的	-10265
中海	-10266
活性	-10267
我可能	-10268
的事吗	-10269
变动	-10270
烟草	-10271
言语	-10272
追溯	-10273
到了吗	-10274
领导者	-10275
拉登	-10276
本该	-10277
权益	-10278
牛津	-10279
报纸上	-10280
▁他觉得	-10281
中产阶级	-10282
研究表明	-10283
躲避	-10284
香蕉	-10285
你不要	-10286
我当时	-10287
的中心	-10288
国家公园	-10289
晚些时候	-10290
至关重要	-10291
pp	-10292
图案	-10293
得像	-10294
教我	-10295
棺材	-10296
特斯	-10297
他可能	-10298
动物的	-10299
向他们	-10300
和一些	-10301
是一场	-10302
美味的	-10303
▁你听到	-10304
▁我确实	-10305
让我看看	-10306
通用汽车	-10307
丽丝	-10308
凭借	-10309
制止	-10310
层面	-10311
征收	-10312
▁除非	-10313
了许多	-10314
微生物	-10315
庇护	-10316
无罪	-10317
遍了	-10318
乌克兰	-10319
作案	-10320
原油	-10321
命名	-10322
小麦	-10323
活儿	-10324
相遇	-10325
雄心	-10326
我愿意	-10327
我们之间	-10328
野心	-10329
到这个	-10330
我开始	-10331
相似的	-10332
▁我和你	-10333
可用	-10334
难堪	-10335
不多了	-10336
世界里	-10337
是一件	-10338
管理员	-10339
在一起了	-10340
的时候了	-10341
时常	-10342
涉嫌	-10343
▁纽约	-10344
▁休	-10345
尼的	-10346
山大	-10347
更换	-10348
灌木	-10349
甜蜜	-10350
相爱	-10351
素的	-10352
袋子	-10353
250	-10354
你说过	-10355
决不会	-10356
减少了	-10357
有多大	-10358
这一次	-10359
▁很高兴见到你	-10360
》。	-10361
一方	-10362
拿去	-10363
你确定	-10364
解释了	-10365
配有一张	-10366
指向	-10367
深圳	-10368
点钱	-10369
的很	-10370
盗窃	-10371
成功地	-10372
收益率	-10373
时间和	-10374
▁他一定	-10375
关税	-10376
水上	-10377
要走	-10378
our	-10379
参与者	-10380
可以从	-10381
就是他	-10382
美国总统	-10383
亲手	-10384
传言	-10385
备受	-10386
它就	-10387
才有	-10388
新型	-10389
议题	-10390
贬值	-10391
张照片	-10392
过一次	-10393
卓越	-10394
店的	-10395
眼的	-10396
这话	-10397
就像个	-10398
我帮你	-10399
看着你	-10400
打得	-10401
失败的	-10402
杀死了	-10403
不是为了	-10404
有什么事	-10405
金融机构	-10406
优化	-10407
和不	-10408
学费	-10409
敲门	-10410
粗鲁	-10411
裸体	-10412
特律	-10413
送给	-10414
▁他甚至	-10415
与众不同	-10416
▁我知道你们	-10417
▁冲	-10418
仍是	-10419
冒着	-10420
威斯	-10421
库存	-10422
旅途	-10423
瓦尔	-10424
苏珊	-10425
说来	-10426
195	-10427
生命中	-10428
看到她	-10429
付出代价	-10430
提琴	-10431
预备	-10432
某个人	-10433
觉得很	-10434
销售额	-10435
激怒	-10436
▁我欠	-10437
之研究	-10438
内心的	-10439
io	-10440
恶作	-10441
扔到	-10442
租金	-10443
蜜月	-10444
这可能	-10445
ff	-10446
可在	-10447
戴尔	-10448
束缚	-10449
生死	-10450
▁卡尔	-10451
▁它在	-10452
的建议	-10453
▁你们的	-10454
电视节目	-10455
知道我们	-10456
▁我告诉他	-10457
委托人	-10458
恶作剧	-10459
买到	-10460
向北	-10461
羽毛	-10462
追捕	-10463
了一大	-10464
目标是	-10465
▁我努力	-10466
到这里来	-10467
▁我敢打赌	-10468
▁长	-10469
会更	-10470
侵略	-10471
发觉	-10472
密集	-10473
销商	-10474
的使用	-10475
一个人的	-10476
头疼	-10477
契约	-10478
想出	-10479
▁你爸	-10480
最重要	-10481
罗拉多	-10482
你没事吧	-10483
twitter	-10484
口水	-10485
就来	-10486
特纳	-10487
英俊	-10488
你们了	-10489
依赖于	-10490
比赛的	-10491
临近	-10492
众所	-10493
停滞	-10494
外婆	-10495
教的	-10496
罕默	-10497
原谅我	-10498
仍有	-10499
普拉	-10500
版的	-10501
着想	-10502
离我	-10503
那又	-10504
骑马	-10505
能让我	-10506
▁你儿子	-10507
▁但我知道	-10508
为啥	-10509
富人	-10510
弗莱	-10511
用手	-10512
20%	-10513
间客房	-10514
▁你相信	-10515
好友	-10516
纠正	-10517
身的	-10518
生产的	-10519
超能力	-10520
▁你丈夫	-10521
az	-10522
从这	-10523
挂在	-10524
级别	-10525
退后	-10526
阿姨	-10527
ern	-10528
不是的	-10529
小时的	-10530
是这个	-10531
能够在	-10532
5000	-10533
▁在过去	-10534
▁她认为	-10535
▁所以我就	-10536
俄亥	-10537
救命	-10538
了他们的	-10539
出台	-10540
出差	-10541
套餐	-10542
拉拉	-10543
造型	-10544
历史的	-10545
▁额	-10546
催眠	-10547
反击	-10548
寄生	-10549
比的	-10550
遗嘱	-10551
因为这个	-10552
一副	-10553
不变	-10554
之道	-10555
天花	-10556
驾车	-10557
为这个	-10558
绝对不会	-10559
▁内	-10560
小偷	-10561
微博	-10562
俄亥俄	-10563
星期天	-10564
ational	-10565
aw	-10566
▁另	-10567
的花	-10568
视野	-10569
酷的	-10570
顽固	-10571
脱衣舞	-10572
那么说	-10573
平板电脑	-10574
复印	-10575
宿舍	-10576
感动	-10577
松饼	-10578
纪律	-10579
而你	-10580
躲在	-10581
▁我写	-10582
的报道	-10583
贝斯特韦斯特酒店	-10584
亚利	-10585
房内	-10586
更像	-10587
狗狗	-10588
▁派对	-10589
不认识	-10590
副作用	-10591
非常的	-10592
eg	-10593
▁拍	-10594
两条	-10595
先知	-10596
吃完	-10597
夜里	-10598
小屋	-10599
木头	-10600
枪手	-10601
研讨	-10602
福音	-10603
美容	-10604
袜子	-10605
较低	-10606
到那里	-10607
对那些	-10608
要不要	-10609
说这个	-10610
都是在	-10611
▁当我在	-10612
只剩	-10613
标识	-10614
萝卜	-10615
追逐	-10616
喝咖啡	-10617
▁不会的	-10618
印象深刻	-10619
分解	-10620
是件	-10621
柔软	-10622
称赞	-10623
人认为	-10624
刚开始	-10625
另一边	-10626
哪去了	-10627
我丈夫	-10628
暴风雨	-10629
的土地	-10630
▁我只需要	-10631
▁因为我不想	-10632
强化	-10633
罚款	-10634
软弱	-10635
肯尼亚	-10636
▁她让我	-10637
你的孩子	-10638
其他国家	-10639
西班牙语	-10640
▁她看起来	-10641
iz	-10642
分数	-10643
别提	-10644
丢脸	-10645
借款	-10646
双眼	-10647
合资	-10648
珍珠	-10649
瓶子	-10650
置于	-10651
陆军	-10652
想让你	-10653
是由于	-10654
的特点	-10655
▁你还在	-10656
亚哥	-10657
冷冻	-10658
前台	-10659
台词	-10660
报仇	-10661
插入	-10662
蒂斯	-10663
mer	-10664
▁别走	-10665
不在场	-10666
做到的	-10667
给了你	-10668
解决的	-10669
▁and	-10670
▁下一个	-10671
我一个人	-10672
我是不是	-10673
争端	-10674
塔尔	-10675
比率	-10676
沿海	-10677
▁会有	-10678
实现了	-10679
两倍	-10680
几句	-10681
口味	-10682
家中	-10683
新人	-10684
电报	-10685
里奇	-10686
ran	-10687
▁很久	-10688
在全球	-10689
她不会	-10690
▁我就会	-10691
▁我见过	-10692
会去	-10693
舞者	-10694
变成一个	-10695
一所	-10696
学期	-10697
并购	-10698
开设	-10699
恶意	-10700
蒸汽	-10701
警员	-10702
超声	-10703
▁我终于	-10704
抨击	-10705
▁报告	-10706
之前就	-10707
影响的	-10708
▁卖	-10709
一款	-10710
举起	-10711
人对	-10712
揭露	-10713
是么	-10714
气管	-10715
点到	-10716
衍生	-10717
问她	-10718
▁出来	-10719
他们所	-10720
开发商	-10721
▁我没事	-10722
大伙	-10723
海关	-10724
页面	-10725
▁客人	-10726
愉快的	-10727
了一系列	-10728
一篇	-10729
中尉	-10730
固执	-10731
思路	-10732
水晶	-10733
▁你总	-10734
下面的	-10735
理想的	-10736
▁我来了	-10737
反弹	-10738
哺乳	-10739
想了	-10740
爱国	-10741
病情	-10742
▁我听到了	-10743
1/	-10744
▁梅	-10745
他来	-10746
导航	-10747
手册	-10748
ear	-10749
▁你猜	-10750
▁鉴于	-10751
导致的	-10752
的酒店	-10753
▁平	-10754
升高	-10755
惠普	-10756
斯托	-10757
有种	-10758
猎物	-10759
虫子	-10760
▁为啥	-10761
但不是	-10762
控制了	-10763
第二天	-10764
就是这个	-10765
▁我们希望	-10766
有什么关系	-10767
期货	-10768
人死亡	-10769
底特律	-10770
的人了	-10771
要是你	-10772
这都是	-10773
后院	-10774
年在	-10775
起初	-10776
似乎是	-10777
奥林匹	-10778
我总是	-10779
▁今天的	-10780
是个好人	-10781
作弊	-10782
场上	-10783
渗透	-10784
钞票	-10785
雕塑	-10786
可以去	-10787
很糟糕	-10788
拥有一	-10789
的母亲	-10790
▁我可能会	-10791
一枪	-10792
一艘	-10793
加班	-10794
怀特	-10795
ood	-10796
这是你	-10797
这样了	-10798
匈牙	-10799
大国	-10800
太小	-10801
插手	-10802
格式	-10803
120	-10804
▁去找	-10805
谈过了	-10806
这么干	-10807
我得走了	-10808
位子	-10809
储藏	-10810
有力	-10811
不了了	-10812
比如说	-10813
▁我希望	-10814
倾听	-10815
费城	-10816
▁又是	-10817
去医院	-10818
自助早餐	-10819
们都	-10820
共进	-10821
压迫	-10822
将它	-10823
扔了	-10824
步伐	-10825
水管	-10826
疲力	-10827
芭蕾	-10828
邮箱	-10829
看电影	-10830
破坏了	-10831
▁我们对	-10832
把自己的	-10833
那是我的	-10834
▁莫	-10835
喜悦	-10836
大象	-10837
炸药	-10838
的首	-10839
dna	-10840
▁律师	-10841
在工作	-10842
很危险	-10843
的存在	-10844
的最后	-10845
▁我昨天	-10846
区分	-10847
害死	-10848
开幕	-10849
引力	-10850
正经	-10851
比他	-10852
见她	-10853
送我	-10854
防守	-10855
新鲜的	-10856
在我们的	-10857
保镖	-10858
正面	-10859
留了	-10860
▁有趣	-10861
将继续	-10862
照顾好	-10863
▁他想要	-10864
▁但不是	-10865
受害者的	-10866
雅各	-10867
这句话	-10868
的过程中	-10869
潜艇	-10870
素质	-10871
零件	-10872
武士	-10873
迫切	-10874
ust	-10875
分钟内	-10876
外面的	-10877
帮帮我	-10878
干细胞	-10879
倒闭	-10880
公元	-10881
干旱	-10882
浓度	-10883
责备	-10884
▁是么	-10885
的分析	-10886
的服务	-10887
▁敬	-10888
一月	-10889
住所	-10890
信徒	-10891
演示	-10892
谈了	-10893
迟早	-10894
▁尼克	-10895
宫殿	-10896
家园	-10897
憎恨	-10898
▁他正	-10899
那件事	-10900
▁干得好	-10901
联邦政府	-10902
像他	-10903
拿起	-10904
救你	-10905
舰队	-10906
▁准确	-10907
看着他	-10908
▁意思是	-10909
▁我答应	-10910
我们走吧	-10911
科学家们	-10912
1%	-10913
85	-10914
入睡	-10915
别处	-10916
别碰	-10917
童话	-10918
跟上	-10919
ach	-10920
imf	-10921
一来	-10922
黑帮	-10923
▁一条	-10924
切尔西	-10925
名单上	-10926
她现在	-10927
它们是	-10928
把你们	-10929
搜集	-10930
滋味	-10931
的脸	-10932
▁会议	-10933
▁法庭	-10934
做出的	-10935
的秘密	-10936
但不	-10937
年初	-10938
找回	-10939
把门	-10940
记载	-10941
隐形	-10942
做的是	-10943
学生的	-10944
我甚至	-10945
▁不会吧	-10946
▁我永远	-10947
iversity	-10948
”、	-10949
侦察	-10950
又不	-10951
扎克	-10952
积累	-10953
维基	-10954
认罪	-10955
重申	-10956
▁私人	-10957
管理的	-10958
▁他让我	-10959
一晚	-10960
游说	-10961
船舶	-10962
芬兰	-10963
用我的	-10964
3000	-10965
▁吉	-10966
伯爵	-10967
坦诚	-10968
尼古	-10969
飙升	-10970
在那个	-10971
失败者	-10972
斯科特	-10973
的音乐	-10974
▁因为这	-10975
▁我们发现	-10976
和对	-10977
摇摆	-10978
漫长	-10979
证件	-10980
貌似	-10981
陪伴	-10982
会议员	-10983
你还没	-10984
我刚刚	-10985
拉斯加	-10986
是通过	-10987
谁知道	-10988
▁一会儿	-10989
一些事情	-10990
任何人都	-10991
一首	-10992
企鹅	-10993
急剧	-10994
胃口	-10995
▁她对	-10996
▁快来	-10997
可卡因	-10998
当他们	-10999
▁我没法	-11000
有自己的	-11001
▁你在这儿	-11002
发生什么事	-11003
分成	-11004
对啊	-11005
特加	-11006
越过	-11007
众所周	-11008
你明白	-11009
到我们	-11010
开玩笑的	-11011
▁我的意思	-11012
乐于	-11013
梦里	-11014
现任	-11015
课题	-11016
▁为此	-11017
年前的	-11018
的目的	-11019
你不喜欢	-11020
住处	-11021
肥皂	-11022
了一位	-11023
基础上	-11024
把那些	-11025
各类	-11026
工党	-11027
生殖	-11028
脚的	-11029
草坪	-11030
的主题	-11031
的身份	-11032
变形	-11033
天后	-11034
最爱	-11035
螺旋	-11036
誓言	-11037
▁带上	-11038
三个人	-11039
形式的	-11040
心理学家	-11041
不让	-11042
修道	-11043
正直	-11044
的人群	-11045
一个星期	-11046
一处	-11047
快来	-11048
打发	-11049
装的	-11050
打给我	-11051
流行的	-11052
长大了	-11053
▁你知道他	-11054
庞大	-11055
明了	-11056
缩减	-11057
你一直	-11058
听到的	-11059
不相	-11060
亚瑟	-11061
十四	-11062
女巫	-11063
无名	-11064
科尔	-11065
太大了	-11066
的女儿	-11067
一起工作	-11068
仅此而已	-11069
启发	-11070
波罗	-11071
身为	-11072
乔布斯	-11073
你看到	-11074
出生的	-11075
的妻子	-11076
高科技	-11077
这种感觉	-11078
▁我不相信	-11079
▁我们要去	-11080
剂量	-11081
年内	-11082
急着	-11083
猜猜	-11084
赶走	-11085
▁毕竟	-11086
全球化	-11087
奥尔良	-11088
希特勒	-11089
▁如果你是	-11090
不休	-11091
活的	-11092
▁按照	-11093
伤害你	-11094
危机的	-11095
的是你	-11096
匆忙	-11097
耶鲁	-11098
词汇	-11099
▁谷歌	-11100
来到这里	-11101
一号	-11102
向南	-11103
洋葱	-11104
纠缠	-11105
赌注	-11106
过世	-11107
一下子	-11108
我和你	-11109
的女性	-11110
的角度	-11111
相应的	-11112
.)	-11113
人人	-11114
优越	-11115
制药	-11116
幼稚	-11117
气了	-11118
而战	-11119
辉煌	-11120
通了	-11121
org	-11122
▁一份	-11123
▁你拿	-11124
▁快走	-11125
看这个	-11126
▁该公司	-11127
我们还有	-11128
无家可归	-11129
结尾	-11130
维奇	-11131
你刚才	-11132
没有了	-11133
公共汽车	-11134
苹果公司	-11135
中断	-11136
为期	-11137
乡下	-11138
事要	-11139
克隆	-11140
公爵	-11141
狠狠	-11142
珊瑚	-11143
喜爱的	-11144
共产主义	-11145
ta	-11146
▁令	-11147
乱的	-11148
依法	-11149
加热	-11150
曲线	-11151
残留	-11152
走人	-11153
都快	-11154
间接	-11155
艾滋病	-11156
▁晚上好	-11157
ew	-11158
▁傻	-11159
个澡	-11160
入狱	-11161
我是否	-11162
管理层	-11163
表现的	-11164
他们没有	-11165
是正确的	-11166
打来	-11167
极限	-11168
空白	-11169
▁11	-11170
不过了	-11171
与我们	-11172
了一张	-11173
的理论	-11174
这一天	-11175
这样的话	-11176
43	-11177
▁ro	-11178
帮你的	-11179
有时间	-11180
某个地方	-11181
▁准备好了吗	-11182
地质	-11183
萨姆	-11184
吸引了	-11185
建立在	-11186
祖国	-11187
上面的	-11188
但如果	-11189
你儿子	-11190
我不该	-11191
我认识	-11192
支持的	-11193
▁我本想	-11194
象征性收费	-11195
从此	-11196
十六	-11197
天主	-11198
救生	-11199
核弹	-11200
游艇	-11201
椅子上	-11202
比利时	-11203
的最好	-11204
自己去	-11205
还是在	-11206
▁我不再	-11207
▁性	-11208
争执	-11209
气息	-11210
的血	-11211
认得	-11212
还说	-11213
你的小	-11214
记得了	-11215
这是在	-11216
住在这里	-11217
没有一个	-11218
上场	-11219
推行	-11220
收看	-11221
重重	-11222
一下吧	-11223
我们把	-11224
我还能	-11225
着他的	-11226
给了他	-11227
要求的	-11228
想要什么	-11229
▁对你来说	-11230
ey	-11231
不被	-11232
各项	-11233
名誉	-11234
狙击	-11235
狡猾	-11236
界限	-11237
碰撞	-11238
避难	-11239
不可以	-11240
也知道	-11241
到时候	-11242
货币基金	-11243
.......	-11244
不远	-11245
恰好	-11246
番茄	-11247
能的	-11248
节约	-11249
草原	-11250
▁公里	-11251
▁历史	-11252
▁毒品	-11253
学会了	-11254
我说过	-11255
▁你叫我	-11256
这个家伙	-11257
帮派	-11258
流入	-11259
顶上	-11260
宇航员	-11261
说话了	-11262
会怎么样	-11263
▁我可以帮你	-11264
军的	-11265
弯曲	-11266
当了	-11267
恩斯	-11268
跑去	-11269
那辆	-11270
雇用	-11271
与美国	-11272
有效地	-11273
出名	-11274
参数	-11275
找她	-11276
看好	-11277
言之	-11278
贫民	-11279
信息的	-11280
有人会	-11281
▁在过去的	-11282
▁按	-11283
时他	-11284
牙医	-11285
眼下	-11286
▁分析	-11287
▁意味着	-11288
完全没有	-11289
依照	-11290
巴尔	-11291
手提	-11292
破碎	-11293
筹集	-11294
线人	-11295
语气	-11296
前所未	-11297
录像带	-11298
我们再	-11299
见到他	-11300
▁我很喜欢	-11301
以致	-11302
墙壁	-11303
应急	-11304
方位	-11305
棘手	-11306
丹尼尔	-11307
很难过	-11308
的效果	-11309
▁你只有	-11310
▁你当时	-11311
▁我为你	-11312
不太可能	-11313
我的儿子	-11314
班车	-11315
▁住在	-11316
▁头儿	-11317
医院的	-11318
就应该	-11319
▁我说的	-11320
不值	-11321
情侣	-11322
送回	-11323
不希望	-11324
法尼亚	-11325
那个女人	-11326
一事	-11327
古董	-11328
无知	-11329
▁是她	-11330
和经济	-11331
我就能	-11332
有多么	-11333
该怎么做	-11334
品味	-11335
崛起	-11336
狗屁	-11337
精子	-11338
bar	-11339
不稳定	-11340
完蛋了	-11341
来参加	-11342
根本就	-11343
环境中	-11344
roid	-11345
▁你知道的	-11346
压抑	-11347
很远	-11348
颗粒	-11349
鸽子	-11350
好东西	-11351
的律师	-11352
▁什么事	-11353
我的家人	-11354
▁你不可能	-11355
▁为什么你要	-11356
叫她	-11357
忙碌	-11358
是大	-11359
转型	-11360
▁决定	-11361
▁史蒂	-11362
▁啊哈	-11363
做手术	-11364
的成功	-11365
▁我收到	-11366
下台	-11367
处置	-11368
最具	-11369
腐烂	-11370
的文件	-11371
▁我试着	-11372
一封	-11373
先前	-11374
死前	-11375
流量	-11376
吃什么	-11377
德国人	-11378
新来的	-11379
样东西	-11380
埋葬	-11381
明早	-11382
管辖	-11383
野餐	-11384
ire	-11385
▁新闻	-11386
玩游戏	-11387
的汽车	-11388
▁这意味着	-11389
堕落	-11390
讯息	-11391
传感器	-11392
没人能	-11393
的任何	-11394
着我们	-11395
?–	-11396
对不	-11397
推断	-11398
杂货	-11399
电气	-11400
蒙德	-11401
面孔	-11402
不怎么	-11403
建筑师	-11404
操作系统	-11405
▁你知道什么	-11406
▁张	-11407
大赛	-11408
天真	-11409
尼日	-11410
引诱	-11411
操控	-11412
你要是	-11413
引人注	-11414
的新闻	-11415
罗姆尼	-11416
见不到	-11417
▁雷	-11418
和高	-11419
塑造	-11420
捐款	-11421
新年	-11422
灰色	-11423
语的	-11424
重庆	-11425
ver	-11426
▁房间	-11427
了一家	-11428
并不会	-11429
给你了	-11430
腾腾的	-11431
▁我只是不想	-11432
信件	-11433
艰苦	-11434
迪亚	-11435
提醒你	-11436
▁我不懂	-11437
世界各地	-11438
叫醒	-11439
好久	-11440
环绕	-11441
直至	-11442
矿石	-11443
议案	-11444
困难的	-11445
我们就能	-11446
▁我可以给你	-11447
中期	-11448
必定	-11449
的总	-11450
莉亚	-11451
通风	-11452
黑洞	-11453
好像是	-11454
安德鲁	-11455
小男孩	-11456
我只能	-11457
▁你见过	-11458
亚利桑那	-11459
成为一名	-11460
这些事情	-11461
各种各样的	-11462
内战	-11463
巨型	-11464
毒素	-11465
腺癌	-11466
阐述	-11467
are	-11468
不行了	-11469
在欧洲	-11470
罕默德	-11471
▁克拉克	-11472
跟我一起	-11473
▁我们一直	-11474
他从	-11475
任意	-11476
大哥	-11477
往下	-11478
海峡	-11479
萎缩	-11480
防卫	-11481
▁泰勒	-11482
不断的	-11483
国防部	-11484
睡觉了	-11485
能力的	-11486
▁你想知道	-11487
会发生什么	-11488
封面	-11489
日内	-11490
棉花	-11491
鸟类	-11492
最喜欢	-11493
▁我对你	-11494
我很喜欢	-11495
▁哥	-11496
中风	-11497
何处	-11498
你走	-11499
山的	-11500
抓狂	-11501
棵树	-11502
甜甜	-11503
用作	-11504
ast	-11505
多年来	-11506
星期二	-11507
好起来的	-11508
windows	-11509
二战	-11510
女神	-11511
将使	-11512
庆幸	-11513
撤退	-11514
非要	-11515
▁就象	-11516
清楚地	-11517
...-	-11518
▁突然间	-11519
圣地亚哥	-11520
小事	-11521
的啊	-11522
编码	-11523
重返	-11524
▁奶奶	-11525
情人节	-11526
是一项	-11527
▁好像是	-11528
并不知道	-11529
勇士	-11530
启示	-11531
大喊	-11532
心烦	-11533
提过	-11534
▁方法	-11535
我是一个	-11536
▁我们都知道	-11537
上是	-11538
况且	-11539
因子	-11540
并无	-11541
罗伊	-11542
黑鬼	-11543
▁一场	-11544
▁希腊	-11545
我在这里	-11546
丑陋	-11547
又能	-11548
好啦	-11549
成真	-11550
满是	-11551
烟雾	-11552
近来	-11553
预先	-11554
了解你	-11555
几个人	-11556
的这个	-11557
维生素	-11558
▁很遗憾	-11559
打电话来	-11560
的是一个	-11561
这种方式	-11562
▁经	-11563
不容	-11564
撞到	-11565
煤炭	-11566
验尸	-11567
▁秘密	-11568
蓝色的	-11569
鲜花	-11570
以外的	-11571
如果你们	-11572
干了什么	-11573
拿回	-11574
沼泽	-11575
演习	-11576
犯错	-11577
锁定	-11578
寻常的	-11579
尔先生	-11580
里面的	-11581
尤其是在	-11582
圆形	-11583
扑克	-11584
架构	-11585
答复	-11586
考古	-11587
萨德	-11588
它可以	-11589
的国际	-11590
▁我父母	-11591
年的时间	-11592
使她	-11593
电线	-11594
第七	-11595
人人都	-11596
到了一个	-11597
布鲁克林	-11598
营业时间	-11599
到过	-11600
大批	-11601
观赏	-11602
我想知道	-11603
一丝	-11604
放置	-11605
疏散	-11606
虚弱	-11607
解脱	-11608
计的	-11609
金字	-11610
闪光	-11611
到哪里	-11612
安全了	-11613
我想我	-11614
打开了	-11615
的大脑	-11616
还不知道	-11617
都是为了	-11618
▁我也不想	-11619
假释	-11620
去那	-11621
宣言	-11622
屈服	-11623
所欲	-11624
的看法	-11625
▁把他的	-11626
两家	-11627
动画	-11628
发掘	-11629
向东	-11630
ner	-11631
▁12	-11632
新泽西	-11633
的状态	-11634
他们认为	-11635
▁你真是个	-11636
▁美	-11637
价的	-11638
序列	-11639
狩猎	-11640
罗杰	-11641
理事会	-11642
ipad	-11643
只在	-11644
睡在	-11645
▁她用	-11646
他还是	-11647
副总统	-11648
我之前	-11649
有个人	-11650
▁你希望	-11651
灾害	-11652
狗娘	-11653
终极	-11654
而这	-11655
难度	-11656
上世纪	-11657
多少次	-11658
纪念日	-11659
怎么可能	-11660
需要帮助	-11661
不理	-11662
亲人	-11663
摩西	-11664
▁加油	-11665
▁多数	-11666
完成的	-11667
标准的	-11668
邪恶的	-11669
你用	-11670
是非	-11671
查到	-11672
猎人	-11673
居住在	-11674
查一下	-11675
的核心	-11676
体力	-11677
吓唬	-11678
堕胎	-11679
大力	-11680
求职	-11681
舰长	-11682
衰竭	-11683
要好	-11684
分子的	-11685
当时的	-11686
忍不住	-11687
没有被	-11688
法国人	-11689
比卡	-11690
特权	-11691
看似	-11692
知觉	-11693
短的	-11694
ath	-11695
仍然在	-11696
分手了	-11697
天主教	-11698
带回来	-11699
手术室	-11700
你们可以	-11701
▁军	-11702
火的	-11703
诈骗	-11704
浏览器	-11705
的资金	-11706
搜索引擎	-11707
并对	-11708
误导	-11709
跨越	-11710
▁你是	-11711
快乐的	-11712
的大型	-11713
一切都会	-11714
,3	-11715
ue	-11716
下巴	-11717
品的	-11718
总监	-11719
数码	-11720
疲惫	-11721
调情	-11722
不高兴	-11723
▁但这是	-11724
▁我确定	-11725
我的时候	-11726
▁你们不是	-11727
废除	-11728
搞到	-11729
棕榈	-11730
进出	-11731
通缉	-11732
下降了	-11733
握手	-11734
没在	-11735
责怪	-11736
镇压	-11737
不会是	-11738
原因的	-11739
参与了	-11740
的未来	-11741
坐在这里	-11742
恐怖主义	-11743
出了什么事	-11744
不但	-11745
克雷	-11746
十三	-11747
天了	-11748
审问	-11749
殿下	-11750
海底	-11751
▁但当	-11752
兄弟们	-11753
年开始	-11754
我确实	-11755
内地	-11756
填补	-11757
潮流	-11758
他们想	-11759
你的脸	-11760
▁大部分	-11761
▁把我们	-11762
你还好吗	-11763
三星	-11764
众人	-11765
窗帘	-11766
艾尔	-11767
▁企业	-11768
其实是	-11769
搞错了	-11770
星期四	-11771
的商业	-11772
这样的事	-11773
吃药	-11774
天上	-11775
异议	-11776
米的	-11777
话的	-11778
▁嫌犯	-11779
两分钟	-11780
人们在	-11781
通电话	-11782
酒店位于	-11783
▁你不喜欢	-11784
你为什么不	-11785
境地	-11786
少校	-11787
用水	-11788
畅销	-11789
这套	-11790
除掉	-11791
万圣节	-11792
和政治	-11793
学院的	-11794
答应我	-11795
ps	-11796
低迷	-11797
出院	-11798
权限	-11799
染色	-11800
长途	-11801
反映了	-11802
打来的	-11803
政府在	-11804
离开的	-11805
领导的	-11806
我看到了	-11807
她被	-11808
干燥	-11809
恕我	-11810
扭转	-11811
窗外	-11812
资深	-11813
起源	-11814
高手	-11815
▁	-11816
。	-11817
的	-11818
,	-11819
我	-11820
你	-11821
是	-11822
了	-11823
不	-11824
一	-11825
在	-11826
们	-11827
他	-11828
?	-11829
.	-11830
有	-11831
这	-11832
人	-11833
个	-11834
为	-11835
来	-11836
会	-11837
么	-11838
要	-11839
好	-11840
到	-11841
上	-11842
就	-11843
能	-11844
以	-11845
和	-11846
可	-11847
说	-11848
她	-11849
那	-11850
时	-11851
得	-11852
对	-11853
想	-11854
去	-11855
过	-11856
大	-11857
没	-11858
道	-11859
!	-11860
什	-11861
很	-11862
但	-11863
中	-11864
里	-11865
生	-11866
子	-11867
国	-11868
知	-11869
吗	-11870
都	-11871
出	-11872
如	-11873
看	-11874
下	-11875
也	-11876
事	-11877
多	-11878
家	-11879
地	-11880
些	-11881
所	-11882
还	-11883
现	-11884
样	-11885
发	-11886
把	-11887
开	-11888
当	-11889
果	-11890
自	-11891
0	-11892
行	-11893
用	-11894
吧	-11895
因	-11896
着	-11897
天	-11898
经	-11899
做	-11900
只	-11901
后	-11902
点	-11903
年	-11904
、	-11905
作	-11906
起	-11907
意	-11908
成	-11909
于	-11910
给	-11911
然	-11912
它	-11913
之	-11914
-	-11915
别	-11916
前	-11917
小	-11918
法	-11919
而	-11920
心	-11921
最	-11922
斯	-11923
定	-11924
学	-11925
从	-11926
方	-11927
公	-11928
让	-11929
1	-11930
其	-11931
分	-11932
面	-11933
真	-11934
被	-11935
话	-11936
者	-11937
动	-11938
间	-11939
美	-11940
已	-11941
机	-11942
进	-11943
儿	-11944
回	-11945
e	-11946
工	-11947
a	-11948
手	-11949
该	-11950
啊	-11951
理	-11952
种	-11953
特	-11954
明	-11955
觉	-11956
力	-11957
电	-11958
像	-11959
本	-11960
无	-11961
同	-11962
将	-11963
听	-11964
应	-11965
告	-11966
怎	-11967
关	-11968
新	-11969
实	-11970
情	-11971
2	-11972
高	-11973
打	-11974
全	-11975
正	-11976
信	-11977
女	-11978
再	-11979
问	-11980
更	-11981
西	-11982
利	-11983
见	-11984
性	-11985
己	-11986
相	-11987
比	-11988
认	-11989
部	-11990
太	-11991
或	-11992
车	-11993
尔	-11994
加	-11995
找	-11996
重	-11997
克	-11998
次	-11999
与	-12000
长	-12001
物	-12002
业	-12003
“	-12004
i	-12005
”	-12006
走	-12007
提	-12008
o	-12009
场	-12010
感	-12011
主	-12012
并	-12013
受	-12014
两	-12015
等	-12016
候	-12017
需	-12018
体	-12019
先	-12020
诉	-12021
快	-12022
外	-12023
孩	-12024
r	-12025
保	-12026
n	-12027
常	-12028
计	-12029
表	-12030
带	-12031
妈	-12032
死	-12033
员	-12034
使	-12035
此	-12036
头	-12037
位	-12038
爱	-12039
合	-12040
政	-12041
管	-12042
名	-12043
今	-12044
活	-12045
通	-12046
安	-12047
)	-12048
(	-12049
呢	-12050
任	-12051
接	-12052
:	-12053
司	-12054
放	-12055
制	-12056
何	-12057
跟	-12058
拉	-12059
直	-12060
日	-12061
入	-12062
变	-12063
度	-12064
几	-12065
解	-12066
身	-12067
内	-12068
每	-12069
东	-12070
题	-12071
欢	-12072
帮	-12073
系	-12074
及	-12075
s	-12076
期	-12077
结	-12078
干	-12079
件	-12080
向	-12081
数	-12082
t	-12083
晚	-12084
喜	-12085
德	-12086
老	-12087
化	-12088
许	-12089
离	-12090
房	-12091
哪	-12092
总	-12093
马	-12094
产	-12095
才	-12096
金	-12097
市	-12098
非	-12099
资	-12100
水	-12101
5	-12102
处	-12103
世	-12104
望	-12105
第	-12106
教	-12107
少	-12108
l	-12109
始	-12110
务	-12111
完	-12112
又	-12113
目	-12114
文	-12115
品	-12116
住	-12117
错	-12118
气	-12119
记	-12120
三	-12121
准	-12122
月	-12123
3	-12124
服	-12125
备	-12126
交	-12127
证	-12128
酒	-12129
球	-12130
报	-12131
基	-12132
量	-12133
英	-12134
亲	-12135
白	-12136
路	-12137
杀	-12138
格	-12139
友	-12140
选	-12141
确	-12142
刚	-12143
论	-12144
由	-12145
失	-12146
收	-12147
民	-12148
士	-12149
口	-12150
统	-12151
布	-12152
查	-12153
代	-12154
希	-12155
区	-12156
必	-12157
指	-12158
持	-12159
早	-12160
亚	-12161
钱	-12162
平	-12163
决	-12164
议	-12165
拿	-12166
海	-12167
吃	-12168
式	-12169
难	-12170
界	-12171
c	-12172
谢	-12173
设	-12174
约	-12175
门	-12176
原	-12177
供	-12178
9	-12179
切	-12180
思	-12181
建	-12182
运	-12183
达	-12184
费	-12185
色	-12186
影	-12187
包	-12188
试	-12189
周	-12190
程	-12191
求	-12192
巴	-12193
反	-12194
边	-12195
4	-12196
叫	-12197
客	-12198
至	-12199
谈	-12200
据	-12201
乐	-12202
近	-12203
神	-12204
战	-12205
联	-12206
示	-12207
科	-12208
视	-12209
哦	-12210
术	-12211
商	-12212
单	-12213
星	-12214
医	-12215
罗	-12216
尼	-12217
队	-12218
夫	-12219
警	-12220
价	-12221
究	-12222
空	-12223
男	-12224
且	-12225
条	-12226
息	-12227
清	-12228
造	-12229
算	-12230
立	-12231
研	-12232
d	-12233
办	-12234
卡	-12235
命	-12236
伙	-12237
病	-12238
够	-12239
助	-12240
案	-12241
请	-12242
治	-12243
消	-12244
谁	-12245
整	-12246
类	-12247
调	-12248
风	-12249
害	-12250
展	-12251
十	-12252
强	-12253
m	-12254
朋	-12255
易	-12256
爸	-12257
取	-12258
投	-12259
师	-12260
装	-12261
权	-12262
器	-12263
店	-12264
室	-12265
官	-12266
远	-12267
花	-12268
军	-12269
流	-12270
片	-12271
支	-12272
光	-12273
张	-12274
改	-12275
8	-12276
字	-12277
声	-12278
导	-12279
义	-12280
传	-12281
组	-12282
识	-12283
府	-12284
6	-12285
象	-12286
尽	-12287
注	-12288
济	-12289
号	-12290
嗯	-12291
照	-12292
线	-12293
h	-12294
院	-12295
网	-12296
伤	-12297
兴	-12298
根	-12299
标	-12300
言	-12301
转	-12302
击	-12303
餐	-12304
停	-12305
7	-12306
担	-12307
玩	-12308
元	-12309
险	-12310
护	-12311
书	-12312
父	-12313
买	-12314
显	-12315
观	-12316
万	-12317
嘿	-12318
兰	-12319
却	-12320
u	-12321
份	-12322
图	-12323
须	-12324
留	-12325
未	-12326
二	-12327
音	-12328
复	-12329
阿	-12330
际	-12331
争	-12332
掉	-12333
引	-12334
节	-12335
各	-12336
演	-12337
眼	-12338
存	-12339
乎	-12340
游	-12341
越	-12342
维	-12343
火	-12344
划	-12345
领	-12346
您	-12347
城	-12348
具	-12349
p	-12350
称	-12351
参	-12352
便	-12353
站	-12354
抱	-12355
即	-12356
项	-12357
止	-12358
g	-12359
形	-12360
共	-12361
况	-12362
穿	-12363
步	-12364
语	-12365
愿	-12366
密	-12367
仅	-12368
续	-12369
规	-12370
台	-12371
四	-12372
写	-12373
增	-12374
控	-12375
技	-12376
否	-12377
精	-12378
社	-12379
首	-12380
型	-12381
另	-12382
;	-12383
奇	-12384
b	-12385
"	-12386
贝	-12387
待	-12388
婚	-12389
往	-12390
令	-12391
则	-12392
容	-12393
华	-12394
枪	-12395
食	-12396
赛	-12397
预	-12398
质	-12399
脑	-12400
母	-12401
飞	-12402
血	-12403
速	-12404
集	-12405
欧	-12406
热	-12407
响	-12408
除	-12409
哥	-12410
林	-12411
犯	-12412
察	-12413
肯	-12414
验	-12415
奥	-12416
满	-12417
律	-12418
局	-12419
呃	-12420
极	-12421
银	-12422
校	-12423
送	-12424
值	-12425
笑	-12426
足	-12427
托	-12428
考	-12429
团	-12430
免	-12431
低	-12432
断	-12433
随	-12434
假	-12435
绝	-12436
紧	-12437
专	-12438
伊	-12439
普	-12440
歉	-12441
派	-12442
坐	-12443
轻	-12444
效	-12445
底	-12446
级	-12447
州	-12448
床	-12449
功	-12450
米	-12451
似	-12452
历	-12453
创	-12454
洲	-12455
责	-12456
救	-12457
怕	-12458
衣	-12459
噢	-12460
料	-12461
山	-12462
超	-12463
排	-12464
致	-12465
南	-12466
味	-12467
曾	-12468
威	-12469
测	-12470
承	-12471
施	-12472
久	-12473
哈	-12474
坏	-12475
构	-12476
率	-12477
纳	-12478
推	-12479
波	-12480
五	-12481
宝	-12482
模	-12483
喝	-12484
黑	-12485
北	-12486
终	-12487
户	-12488
举	-12489
吸	-12490
罪	-12491
激	-12492
史	-12493
适	-12494
付	-12495
药	-12496
深	-12497
印	-12498
半	-12499
顿	-12500
票	-12501
蛋	-12502
油	-12503
监	-12504
弟	-12505
获	-12506
怪	-12507
营	-12508
职	-12509
钟	-12510
置	-12511
某	-12512
继	-12513
庭	-12514
列	-12515
礼	-12516
睡	-12517
危	-12518
独	-12519
百	-12520
k	-12521
破	-12522
括	-12523
班	-12524
境	-12525
细	-12526
弄	-12527
讨	-12528
源	-12529
股	-12530
仍	-12531
恩	-12532
石	-12533
%	-12534
连	-12535
配	-12536
毒	-12537
简	-12538
录	-12539
板	-12540
环	-12541
故	-12542
岁	-12543
段	-12544
众	-12545
例	-12546
讲	-12547
差	-12548
态	-12549
企	-12550
帝	-12551
换	-12552
弹	-12553
择	-12554
富	-12555
伦	-12556
检	-12557
博	-12558
习	-12559
搞	-12560
状	-12561
款	-12562
圣	-12563
福	-12564
微	-12565
落	-12566
策	-12567
跑	-12568
货	-12569
压	-12570
忙	-12571
严	-12572
索	-12573
党	-12574
广	-12575
舞	-12576
探	-12577
纪	-12578
角	-12579
负	-12580
旅	-12581
歌	-12582
突	-12583
套	-12584
育	-12585
嘛	-12586
f	-12587
围	-12588
卖	-12589
拜	-12590
船	-12591
y	-12592
恶	-12593
素	-12594
姆	-12595
王	-12596
疗	-12597
减	-12598
疑	-12599
静	-12600
趣	-12601
采	-12602
双	-12603
织	-12604
街	-12605
升	-12606
抓	-12607
伯	-12608
评	-12609
防	-12610
倒	-12611
修	-12612
洛	-12613
·	-12614
土	-12615
念	-12616
答	-12617
古	-12618
卫	-12619
较	-12620
莱	-12621
养	-12622
刻	-12623
馆	-12624
居	-12625
甚	-12626
雷	-12627
戏	-12628
忘	-12629
私	-12630
释	-12631
诺	-12632
冲	-12633
混	-12634
冷	-12635
皮	-12636
限	-12637
夜	-12638
降	-12639
午	-12640
幸	-12641
移	-12642
迪	-12643
园	-12644
财	-12645
块	-12646
射	-12647
协	-12648
兄	-12649
恐	-12650
啦	-12651
亮	-12652
棒	-12653
退	-12654
依	-12655
萨	-12656
析	-12657
束	-12658
森	-12659
势	-12660
购	-12661
偷	-12662
拥	-12663
丽	-12664
痛	-12665
烦	-12666
销	-12667
永	-12668
麻	-12669
冰	-12670
楚	-12671
读	-12672
充	-12673
顾	-12674
跳	-12675
享	-12676
怀	-12677
休	-12678
闻	-12679
画	-12680
层	-12681
按	-12682
群	-12683
优	-12684
景	-12685
沙	-12686
惊	-12687
靠	-12688
益	-12689
拍	-12690
w	-12691
梦	-12692
洗	-12693
吉	-12694
族	-12695
姐	-12696
红	-12697
唯	-12698
楼	-12699
六	-12700
虑	-12701
灵	-12702
松	-12703
临	-12704
背	-12705
练	-12706
融	-12707
塔	-12708
乱	-12709
千	-12710
昨	-12711
温	-12712
勒	-12713
香	-12714
饭	-12715
属	-12716
狗	-12717
健	-12718
域	-12719
急	-12720
判	-12721
寻	-12722
箱	-12723
杂	-12724
敢	-12725
售	-12726
疯	-12727
介	-12728
竞	-12729
剧	-12730
杯	-12731
座	-12732
架	-12733
鱼	-12734
汽	-12735
迷	-12736
嗨	-12737
困	-12738
苦	-12739
遇	-12740
互	-12741
核	-12742
康	-12743
暴	-12744
距	-12745
追	-12746
鬼	-12747
秘	-12748
志	-12749
藏	-12750
执	-12751
糟	-12752
抗	-12753
劳	-12754
奶	-12755
脸	-12756
v	-12757
醒	-12758
杰	-12759
咱	-12760
误	-12761
脱	-12762
败	-12763
牛	-12764
努	-12765
坚	-12766
码	-12767
烟	-12768
坦	-12769
妻	-12770
艺	-12771
善	-12772
弗	-12773
露	-12774
审	-12775
农	-12776
课	-12777
异	-12778
债	-12779
短	-12780
》	-12781
《	-12782
肉	-12783
初	-12784
曼	-12785
脚	-12786
守	-12787
弃	-12788
唱	-12789
逃	-12790
麦	-12791
范	-12792
巨	-12793
慢	-12794
啡	-12795
树	-12796
瑞	-12797
牌	-12798
呼	-12799
岛	-12800
咖	-12801
斗	-12802
武	-12803
航	-12804
蒂	-12805
述	-12806
牙	-12807
塞	-12808
呀	-12809
额	-12810
宣	-12811
赢	-12812
鲁	-12813
词	-12814
乔	-12815
委	-12816
略	-12817
赶	-12818
凯	-12819
税	-12820
席	-12821
阳	-12822
附	-12823
苏	-12824
炸	-12825
俩	-12826
亡	-12827
缺	-12828
戴	-12829
—	-12830
毛	-12831
笔	-12832
河	-12833
避	-12834
症	-12835
尤	-12836
登	-12837
般	-12838
狂	-12839
损	-12840
妹	-12841
懂	-12842
革	-12843
嘴	-12844
智	-12845
屋	-12846
签	-12847
艾	-12848
库	-12849
朝	-12850
漂	-12851
毁	-12852
季	-12853
左	-12854
右	-12855
批	-12856
软	-12857
胜	-12858
堂	-12859
骨	-12860
浪	-12861
序	-12862
辆	-12863
挺	-12864
络	-12865
训	-12866
补	-12867
厅	-12868
借	-12869
纸	-12870
闭	-12871
俄	-12872
尸	-12873
遗	-12874
狱	-12875
摩	-12876
厌	-12877
木	-12878
八	-12879
盛	-12880
鲜	-12881
爆	-12882
亿	-12883
铁	-12884
埃	-12885
镇	-12886
纽	-12887
草	-12888
丝	-12889
输	-12890
呆	-12891
轮	-12892
阻	-12893
顶	-12894
野	-12895
散	-12896
耶	-12897
征	-12898
含	-12899
糕	-12900
盟	-12901
虽	-12902
染	-12903
盖	-12904
透	-12905
谋	-12906
暗	-12907
禁	-12908
脏	-12909
既	-12910
谷	-12911
迹	-12912
兵	-12913
招	-12914
碰	-12915
刺	-12916
迎	-12917
旧	-12918
捕	-12919
句	-12920
伴	-12921
访	-12922
挑	-12923
踪	-12924
著	-12925
版	-12926
聊	-12927
舒	-12928
聚	-12929
撒	-12930
归	-12931
菲	-12932
良	-12933
积	-12934
菜	-12935
占	-12936
泰	-12937
播	-12938
估	-12939
币	-12940
章	-12941
冒	-12942
替	-12943
骗	-12944
韦	-12945
佛	-12946
尝	-12947
黄	-12948
莫	-12949
玛	-12950
封	-12951
鸡	-12952
谎	-12953
厂	-12954
贷	-12955
朗	-12956
弱	-12957
奖	-12958
操	-12959
丢	-12960
顺	-12961
港	-12962
遍	-12963
娘	-12964
傻	-12965
省	-12966
默	-12967
攻	-12968
植	-12969
盘	-12970
妇	-12971
液	-12972
典	-12973
童	-12974
凶	-12975
蒙	-12976
概	-12977
摄	-12978
洋	-12979
汉	-12980
浴	-12981
熟	-12982
丹	-12983
魔	-12984
丈	-12985
曲	-12986
贵	-12987
端	-12988
•	-12989
京	-12990
村	-12991
镜	-12992
烈	-12993
青	-12994
啥	-12995
娜	-12996
瓦	-12997
迫	-12998
稳	-12999
针	-13000
折	-13001
均	-13002
/	-13003
遭	-13004
巧	-13005
授	-13006
编	-13007
七	-13008
烧	-13009
饼	-13010
拒	-13011
胡	-13012
材	-13013
灯	-13014
毫	-13015
扰	-13016
旦	-13017
桌	-13018
隐	-13019
频	-13020
掌	-13021
翻	-13022
竟	-13023
雇	-13024
措	-13025
吓	-13026
耳	-13027
筑	-13028
缩	-13029
储	-13030
雅	-13031
誓	-13032
障	-13033
恋	-13034
搜	-13035
袋	-13036
副	-13037
胞	-13038
固	-13039
徒	-13040
滑	-13041
糖	-13042
驶	-13043
龙	-13044
彩	-13045
喂	-13046
邮	-13047
莉	-13048
雪	-13049
剂	-13050
租	-13051
沉	-13052
敦	-13053
裁	-13054
键	-13055
宽	-13056
夏	-13057
猜	-13058
档	-13059
末	-13060
迟	-13061
S	-13062
若	-13063
荣	-13064
帕	-13065
陷	-13066
媒	-13067
睛	-13068
订	-13069
陆	-13070
沃	-13071
允	-13072
抽	-13073
陪	-13074
池	-13075
雨	-13076
挥	-13077
C	-13078
旁	-13079
券	-13080
窗	-13081
邦	-13082
诚	-13083
袭	-13084
患	-13085
祝	-13086
触	-13087
尊	-13088
潜	-13089
丰	-13090
赌	-13091
抵	-13092
阶	-13093
敌	-13094
忍	-13095
酸	-13096
丁	-13097
蠢	-13098
刀	-13099
A	-13100
毕	-13101
硬	-13102
抢	-13103
梅	-13104
描	-13105
途	-13106
搬	-13107
胁	-13108
扩	-13109
余	-13110
锁	-13111
宗	-13112
摆	-13113
申	-13114
延	-13115
腿	-13116
赞	-13117
屁	-13118
鸟	-13119
忆	-13120
残	-13121
彼	-13122
贸	-13123
碍	-13124
撞	-13125
汇	-13126
九	-13127
灭	-13128
聪	-13129
零	-13130
粉	-13131
饮	-13132
础	-13133
废	-13134
悲	-13135
尚	-13136
扎	-13137
扔	-13138
洞	-13139
震	-13140
搭	-13141
诞	-13142
鞋	-13143
叶	-13144
鼓	-13145
予	-13146
堡	-13147
雄	-13148
缓	-13149
P	-13150
虫	-13151
怒	-13152
j	-13153
绿	-13154
赖	-13155
婆	-13156
佳	-13157
累	-13158
甜	-13159
促	-13160
宾	-13161
茶	-13162
启	-13163
拖	-13164
培	-13165
倍	-13166
吹	-13167
哭	-13168
宁	-13169
剩	-13170
墙	-13171
卷	-13172
湾	-13173
净	-13174
载	-13175
皇	-13176
碎	-13177
央	-13178
奋	-13179
泡	-13180
孤	-13181
勇	-13182
豪	-13183
逐	-13184
偶	-13185
李	-13186
翰	-13187
宫	-13188
幅	-13189
x	-13190
虚	-13191
寸	-13192
刑	-13193
偏	-13194
燃	-13195
伟	-13196
幕	-13197
握	-13198
戒	-13199
惯	-13200
漫	-13201
墨	-13202
庆	-13203
违	-13204
援	-13205
督	-13206
M	-13207
秀	-13208
挂	-13209
灾	-13210
讯	-13211
迈	-13212
恨	-13213
沿	-13214
岸	-13215
贴	-13216
莎	-13217
疾	-13218
滚	-13219
堆	-13220
湖	-13221
阴	-13222
泳	-13223
鼠	-13224
圈	-13225
猫	-13226
侵	-13227
献	-13228
蓝	-13229
瓶	-13230
绍	-13231
涉	-13232
辩	-13233
倾	-13234
妮	-13235
姑	-13236
敬	-13237
裂	-13238
F	-13239
嫌	-13240
兹	-13241
尺	-13242
稍	-13243
闹	-13244
隔	-13245
乘	-13246
尾	-13247
醉	-13248
仔	-13249
敏	-13250
罚	-13251
渐	-13252
乡	-13253
魂	-13254
绪	-13255
符	-13256
田	-13257
甲	-13258
衡	-13259
犹	-13260
污	-13261
汤	-13262
怖	-13263
裤	-13264
脉	-13265
酷	-13266
穆	-13267
恢	-13268
邻	-13269
幻	-13270
摇	-13271
励	-13272
诊	-13273
谓	-13274
孕	-13275
扫	-13276
骑	-13277
逊	-13278
彻	-13279
仪	-13280
妙	-13281
忧	-13282
云	-13283
寄	-13284
劲	-13285
B	-13286
黎	-13287
厨	-13288
z	-13289
驾	-13290
吻	-13291
吵	-13292
炉	-13293
绑	-13294
春	-13295
繁	-13296
祖	-13297
饰	-13298
暂	-13299
夺	-13300
尿	-13301
扮	-13302
径	-13303
喔	-13304
阵	-13305
瓜	-13306
闪	-13307
猎	-13308
烂	-13309
账	-13310
苹	-13311
纹	-13312
汗	-13313
肥	-13314
询	-13315
叔	-13316
赏	-13317
宇	-13318
佩	-13319
矿	-13320
胸	-13321
胎	-13322
俱	-13323
磨	-13324
洁	-13325
霍	-13326
凡	-13327
欲	-13328
辛	-13329
赫	-13330
诗	-13331
癌	-13332
插	-13333
桥	-13334
颗	-13335
怜	-13336
瑟	-13337
偿	-13338
齐	-13339
伍	-13340
劫	-13341
穷	-13342
菌	-13343
T	-13344
椅	-13345
叛	-13346
篇	-13347
氧	-13348
牢	-13349
辞	-13350
丧	-13351
圆	-13352
页	-13353
侧	-13354
晨	-13355
韩	-13356
潮	-13357
闲	-13358
纯	-13359
卢	-13360
逼	-13361
缘	-13362
羊	-13363
宜	-13364
垃	-13365
圾	-13366
桑	-13367
尖	-13368
怨	-13369
邀	-13370
衰	-13371
抛	-13372
疼	-13373
瞧	-13374
龄	-13375
胆	-13376
冠	-13377
寓	-13378
乌	-13379
乏	-13380
赚	-13381
腊	-13382
秒	-13383
殊	-13384
惧	-13385
忽	-13386
忠	-13387
荷	-13388
押	-13389
润	-13390
灰	-13391
董	-13392
涨	-13393
匹	-13394
贫	-13395
猪	-13396
爷	-13397
壁	-13398
署	-13399
泛	-13400
躲	-13401
钢	-13402
暖	-13403
绕	-13404
喷	-13405
欠	-13406
迅	-13407
扣	-13408
耐	-13409
厉	-13410
珍	-13411
诸	-13412
饿	-13413
摸	-13414
笨	-13415
丑	-13416
匙	-13417
凭	-13418
肠	-13419
杉	-13420
辑	-13421
惹	-13422
钥	-13423
厚	-13424
愤	-13425
梯	-13426
澳	-13427
跌	-13428
卧	-13429
愚	-13430
链	-13431
唐	-13432
帐	-13433
撤	-13434
W	-13435
谅	-13436
糊	-13437
驱	-13438
滩	-13439
葡	-13440
削	-13441
哇	-13442
览	-13443
腐	-13444
盗	-13445
荒	-13446
阅	-13447
逮	-13448
萄	-13449
址	-13450
荡	-13451
啤	-13452
吐	-13453
扬	-13454
乳	-13455
痴	-13456
姻	-13457
欣	-13458
伸	-13459
E	-13460
焦	-13461
烤	-13462
陈	-13463
臭	-13464
肤	-13465
I	-13466
仰	-13467
D	-13468
奏	-13469
召	-13470
泽	-13471
抑	-13472
欺	-13473
册	-13474
勃	-13475
虎	-13476
砸	-13477
'	-13478
返	-13479
颜	-13480
壮	-13481
薄	-13482
诱	-13483
惠	-13484
恰	-13485
辈	-13486
掩	-13487
爵	-13488
琳	-13489
薪	-13490
眠	-13491
绩	-13492
晶	-13493
戈	-13494
漏	-13495
鼻	-13496
矶	-13497
疫	-13498
摘	-13499
婴	-13500
旋	-13501
埋	-13502
挖	-13503
塑	-13504
豆	-13505
隆	-13506
胀	-13507
貌	-13508
昂	-13509
粗	-13510
帽	-13511
盒	-13512
擦	-13513
誉	-13514
趋	-13515
涂	-13516
爬	-13517
仿	-13518
旗	-13519
傲	-13520
淡	-13521
扯	-13522
肌	-13523
熊	-13524
宿	-13525
拟	-13526
振	-13527
柜	-13528
钻	-13529
淋	-13530
愉	-13531
映	-13532
递	-13533
胶	-13534
罢	-13535
艰	-13536
宙	-13537
捐	-13538
译	-13539
鉴	-13540
舰	-13541
渴	-13542
廉	-13543
茨	-13544
轨	-13545
汁	-13546
祷	-13547
於	-13548
躺	-13549
珠	-13550
杜	-13551
惜	-13552
蜜	-13553
冬	-13554
峰	-13555
炎	-13556
庄	-13557
慈	-13558
冻	-13559
窃	-13560
拳	-13561
悉	-13562
痕	-13563
夹	-13564
综	-13565
泥	-13566
惑	-13567
芬	-13568
悔	-13569
详	-13570
揭	-13571
牧	-13572
孔	-13573
盯	-13574
泄	-13575
遵	-13576
江	-13577
秋	-13578
敲	-13579
跨	-13580
愈	-13581
膜	-13582
廊	-13583
缸	-13584
筹	-13585
琴	-13586
碳	-13587
牲	-13588
G	-13589
岩	-13590
娃	-13591
惨	-13592
葬	-13593
舍	-13594
帅	-13595
纵	-13596
拼	-13597
耗	-13598
截	-13599
伪	-13600
仇	-13601
宠	-13602
玻	-13603
浮	-13604
腾	-13605
割	-13606
巡	-13607
兽	-13608
湿	-13609
脂	-13610
喊	-13611
挤	-13612
俗	-13613
肿	-13614
乖	-13615
纷	-13616
填	-13617
磁	-13618
刷	-13619
坡	-13620
祈	-13621
挡	-13622
屏	-13623
羞	-13624
覆	-13625
咬	-13626
胖	-13627
朵	-13628
狼	-13629
袖	-13630
昏	-13631
姓	-13632
杆	-13633
恒	-13634
殖	-13635
拆	-13636
谱	-13637
遥	-13638
玉	-13639
–	-13640
踢	-13641
柔	-13642
R	-13643
县	-13644
胃	-13645
宴	-13646
拾	-13647
横	-13648
拔	-13649
肺	-13650
缝	-13651
幼	-13652
O	-13653
循	-13654
伏	-13655
憾	-13656
剪	-13657
敞	-13658
奉	-13659
嫁	-13660
猛	-13661
L	-13662
艘	-13663
牵	-13664
粒	-13665
肩	-13666
仓	-13667
N	-13668
挣	-13669
番	-13670
崩	-13671
扭	-13672
脆	-13673
赤	-13674
耍	-13675
甘	-13676
君	-13677
辱	-13678
添	-13679
幽	-13680
堪	-13681
疲	-13682
齿	-13683
璃	-13684
铺	-13685
夸	-13686
篮	-13687
惩	-13688
盐	-13689
剑	-13690
侦	-13691
瘤	-13692
捷	-13693
撑	-13694
赋	-13695
臂	-13696
拯	-13697
郁	-13698
兼	-13699
呈	-13700
浓	-13701
炼	-13702
披	-13703
邪	-13704
墓	-13705
跃	-13706
抬	-13707
勤	-13708
芝	-13709
哲	-13710
井	-13711
柏	-13712
摔	-13713
沟	-13714
翼	-13715
渡	-13716
娱	-13717
爽	-13718
奴	-13719
箭	-13720
尘	-13721
阁	-13722
慰	-13723
咨	-13724
鲍	-13725
漠	-13726
役	-13727
炮	-13728
郎	-13729
凌	-13730
泪	-13731
澡	-13732
叙	-13733
歇	-13734
孙	-13735
牺	-13736
擅	-13737
垫	-13738
祸	-13739
肚	-13740
桶	-13741
裙	-13742
捉	-13743
弯	-13744
赔	-13745
厕	-13746
骚	-13747
恭	-13748
辣	-13749
贩	-13750
稣	-13751
奔	-13752
逻	-13753
耀	-13754
腹	-13755
奈	-13756
晓	-13757
恼	-13758
盾	-13759
溜	-13760
驻	-13761
蜂	-13762
亨	-13763
慌	-13764
械	-13765
纠	-13766
绘	-13767
骄	-13768
溃	-13769
艇	-13770
灌	-13771
讶	-13772
蛇	-13773
腺	-13774
谨	-13775
庞	-13776
奸	-13777
唔	-13778
歧	-13779
凝	-13780
践	-13781
詹	-13782
吞	-13783
弥	-13784
旨	-13785
赠	-13786
迁	-13787
滋	-13788
稀	-13789
慎	-13790
届	-13791
聘	-13792
咒	-13793
抚	-13794
栏	-13795
拨	-13796
巫	-13797
罐	-13798
蹈	-13799
尉	-13800
仁	-13801
呐	-13802
闯	-13803
唤	-13804
氏	-13805
晕	-13806
寒	-13807
催	-13808
罕	-13809
肝	-13810
慧	-13811
叉	-13812
熨	-13813
讼	-13814
衫	-13815
贡	-13816
刊	-13817
洪	-13818
滴	-13819
煤	-13820
壳	-13821
酬	-13822
泉	-13823
雕	-13824
绳	-13825
H	-13826
舌	-13827
蓄	-13828
腰	-13829
矩	-13830
携	-13831
津	-13832
妥	-13833
佣	-13834
籍	-13835
踏	-13836
辜	-13837
崇	-13838
辅	-13839
盈	-13840
宅	-13841
嘉	-13842
悬	-13843
朱	-13844
凉	-13845
妓	-13846
巾	-13847
魅	-13848
膀	-13849
忌	-13850
擎	-13851
柱	-13852
缠	-13853
矛	-13854
腔	-13855
苗	-13856
竭	-13857
囊	-13858
罩	-13859
拘	-13860
瞒	-13861
宪	-13862
殿	-13863
衬	-13864
妆	-13865
劝	-13866
诈	-13867
垂	-13868
妒	-13869
猴	-13870
陌	-13871
荐	-13872
寿	-13873
辨	-13874
柯	-13875
纤	-13876
吊	-13877
粘	-13878
疏	-13879
祭	-13880
肾	-13881
饱	-13882
裸	-13883
瞎	-13884
兔	-13885
框	-13886
趟	-13887
炒	-13888
坛	-13889
姿	-13890
浅	-13891
岗	-13892
舱	-13893
紫	-13894
狠	-13895
逆	-13896
坞	-13897
酱	-13898
毯	-13899
坎	-13900
悦	-13901
勾	-13902
婊	-13903
扶	-13904
粮	-13905
倦	-13906
瘾	-13907
雾	-13908
御	-13909
厄	-13910
卑	-13911
亏	-13912
宏	-13913
咪	-13914
脖	-13915
壤	-13916
侣	-13917
耻	-13918
铜	-13919
嘲	-13920
僵	-13921
枝	-13922
囚	-13923
锋	-13924
扇	-13925
摧	-13926
贱	-13927
斥	-13928
嘘	-13929
嫉	-13930
闷	-13931
棍	-13932
屈	-13933
川	-13934
卵	-13935
坠	-13936
贪	-13937
斑	-13938
贾	-13939
昆	-13940
钓	-13941
劣	-13942
霉	-13943
甩	-13944
臣	-13945
桃	-13946
骂	-13947
谍	-13948
淘	-13949
亦	-13950
丛	-13951
粹	-13952
哀	-13953
蕾	-13954
q	-13955
犬	-13956
氛	-13957
仙	-13958
稿	-13959
唇	-13960
募	-13961
剥	-13962
拓	-13963
笼	-13964
沫	-13965
虐	-13966
掘	-13967
酪	-13968
蒸	-13969
廷	-13970
膝	-13971
猩	-13972
膨	-13973
镑	-13974
尬	-13975
挪	-13976
屠	-13977
仆	-13978
妞	-13979
碗	-13980
奢	-13981
佐	-13982
尴	-13983
拐	-13984
贯	-13985
隶	-13986
轰	-13987
栋	-13988
哼	-13989
堵	-13990
刮	-13991
狮	-13992
穴	-13993
V	-13994
磅	-13995
醇	-13996
脾	-13997
挽	-13998
屎	-13999
涯	-14000
窝	-14001
赐	-14002
悄	-14003
鹰	-14004
撕	-14005
铃	-14006
谊	-14007
畅	-14008
涌	-14009
钉	-14010
晰	-14011
恕	-14012
贺	-14013
逛	-14014
贼	-14015
咯	-14016
抹	-14017
漆	-14018
肃	-14019
枚	-14020
阔	-14021
峡	-14022
搅	-14023
榜	-14024
遣	-14025
饥	-14026
妨	-14027
扑	-14028
砍	-14029
卓	-14030
串	-14031
珊	-14032
滥	-14033
慕	-14034
裹	-14035
佬	-14036
蛮	-14037
颇	-14038
」	-14039
吁	-14040
脊	-14041
谐	-14042
「	-14043
懒	-14044
喉	-14045
挨	-14046
盆	-14047
伐	-14048
娶	-14049
辐	-14050
盲	-14051
颠	-14052
契	-14053
晃	-14054
履	-14055
渔	-14056
螺	-14057
畏	-14058
鹅	-14059
瘦	-14060
兑	-14061
衷	-14062
芭	-14063
鹿	-14064
郡	-14065
悠	-14066
裕	-14067
孟	-14068
卜	-14069
乃	-14070
眉	-14071
讽	-14072
旺	-14073
锻	-14074
乙	-14075
娅	-14076
郊	-14077
垒	-14078
刘	-14079
斜	-14080
棉	-14081
葛	-14082
删	-14083
阐	-14084
浆	-14085
溶	-14086
颈	-14087
宰	-14088
赎	-14089
麽	-14090
辉	-14091
榄	-14092
匆	-14093
锐	-14094
柴	-14095
浦	-14096
丘	-14097
逗	-14098
&	-14099
肖	-14100
仗	-14101
橄	-14102
泊	-14103
摊	-14104
肢	-14105
遮	-14106
拦	-14107
寂	-14108
逝	-14109
捡	-14110
裔	-14111
蔬	-14112
搏	-14113
陶	-14114
沮	-14115
卸	-14116
萝	-14117
塌	-14118
珀	-14119
瑰	-14120
蜡	-14121
矮	-14122
煮	-14123
鲸	-14124
睁	-14125
肪	-14126
叹	-14127
飘	-14128
喘	-14129
煎	-14130
苍	-14131
莲	-14132
侠	-14133
K	-14134
兜	-14135
梁	-14136
揍	-14137
缅	-14138
佑	-14139
篷	-14140
橡	-14141
棕	-14142
驳	-14143
锅	-14144
浏	-14145
玫	-14146
枕	-14147
叠	-14148
坑	-14149
熬	-14150
兆	-14151
滞	-14152
踩	-14153
琼	-14154
挫	-14155
抖	-14156
汀	-14157
锡	-14158
鸣	-14159
唉	-14160
浸	-14161
黛	-14162
愧	-14163
翁	-14164
茄	-14165
潘	-14166
扁	-14167
皆	-14168
筋	-14169
寺	-14170
翅	-14171
莓	-14172
胳	-14173
攀	-14174
缴	-14175
夕	-14176
妄	-14177
芯	-14178
匿	-14179
堕	-14180
筒	-14181
甸	-14182
钩	-14183
锦	-14184
瞬	-14185
膊	-14186
‘	-14187
躁	-14188
凑	-14189
棋	-14190
浑	-14191
剖	-14192
酶	-14193
砖	-14194
伞	-14195
蛛	-14196
棵	-14197
轴	-14198
膏	-14199
喻	-14200
巢	-14201
畜	-14202
匪	-14203
狄	-14204
晒	-14205
谴	-14206
爹	-14207
桩	-14208
U	-14209
槟	-14210
噪	-14211
弊	-14212
寡	-14213
淹	-14214
袜	-14215
霸	-14216
狭	-14217
贿	-14218
冈	-14219
谬	-14220
咋	-14221
涵	-14222
茜	-14223
诅	-14224
颁	-14225
鸭	-14226
夷	-14227
杨	-14228
虾	-14229
丸	-14230
骤	-14231
羽	-14232
沾	-14233
僚	-14234
汰	-14235
蚀	-14236
疚	-14237
噩	-14238
洒	-14239
烛	-14240
旱	-14241
豫	-14242
奎	-14243
姨	-14244
谜	-14245
滨	-14246
鄙	-14247
稻	-14248
橱	-14249
鲨	-14250
吨	-14251
诡	-14252
纱	-14253
顽	-14254
慨	-14255
吼	-14256
绵	-14257
趁	-14258
盼	-14259
秩	-14260
碑	-14261
薯	-14262
嫩	-14263
腕	-14264
庙	-14265
迄	-14266
铅	-14267
厦	-14268
淫	-14269
贬	-14270
钮	-14271
渗	-14272
豹	-14273
衍	-14274
陛	-14275
轿	-14276
伽	-14277
燕	-14278
肆	-14279
晋	-14280
垮	-14281
芒	-14282
~	-14283
酿	-14284
溢	-14285
炭	-14286
蔽	-14287
倡	-14288
藉	-14289
赴	-14290
函	-14291
氢	-14292
棘	-14293
匠	-14294
谣	-14295
颤	-14296
硅	-14297
枯	-14298
龟	-14299
泼	-14300
捣	-14301
碟	-14302
萧	-14303
徽	-14304
俊	-14305
雀	-14306
毙	-14307
艳	-14308
J	-14309
侍	-14310
搁	-14311
泣	-14312
滤	-14313
坟	-14314
侮	-14315
竹	-14316
棚	-14317
睹	-14318
帆	-14319
芳	-14320
梳	-14321
巷	-14322
禽	-14323
髓	-14324
勋	-14325
渣	-14326
哨	-14327
渠	-14328
狐	-14329
朴	-14330
钞	-14331
烹	-14332
槽	-14333
痒	-14334
掠	-14335
饶	-14336
雌	-14337
柄	-14338
壶	-14339
凤	-14340
呕	-14341
戚	-14342
蔓	-14343
琪	-14344
冥	-14345
愁	-14346
皱	-14347
绒	-14348
屿	-14349
藤	-14350
绅	-14351
肮	-14352
铐	-14353
妖	-14354
谦	-14355
驰	-14356
铝	-14357
辖	-14358
憎	-14359
瞄	-14360
鸦	-14361
霜	-14362
厢	-14363
栽	-14364
馅	-14365
悟	-14366
庇	-14367
彭	-14368
蜘	-14369
掏	-14370
窄	-14371
烫	-14372
燥	-14373
椎	-14374
蝶	-14375
抄	-14376
慷	-14377
炫	-14378
弦	-14379
梭	-14380
叨	-14381
暑	-14382
飙	-14383
缉	-14384
蹲	-14385
靴	-14386
溪	-14387
俯	-14388
芽	-14389
椒	-14390
侈	-14391
芙	-14392
庸	-14393
仑	-14394
喀	-14395
捞	-14396
哎	-14397
咽	-14398
萎	-14399
仲	-14400
馈	-14401
呵	-14402
耕	-14403
茫	-14404
趴	-14405
勉	-14406
哟	-14407
蓬	-14408
焰	-14409
薇	-14410
’	-14411
隧	-14412
稽	-14413
袍	-14414
嚷	-14415
吴	-14416
扳	-14417
秃	-14418
陵	-14419
鸽	-14420
瓷	-14421
拷	-14422
饲	-14423
祥	-14424
硫	-14425
歪	-14426
咙	-14427
哄	-14428
爪	-14429
撰	-14430
氨	-14431
趾	-14432
豁	-14433
垄	-14434
溯	-14435
栓	-14436
懦	-14437
胺	-14438
窥	-14439
葱	-14440
坪	-14441
疤	-14442
盔	-14443
乞	-14444
锯	-14445
昧	-14446
鞭	-14447
丫	-14448
嗓	-14449
斤	-14450
瘫	-14451
跪	-14452
杠	-14453
儒	-14454
栖	-14455
株	-14456
硕	-14457
崖	-14458
坝	-14459
嚼	-14460
淇	-14461
缆	-14462
侄	-14463
曝	-14464
陋	-14465
墅	-14466
捏	-14467
驴	-14468
幢	-14469
阱	-14470
粪	-14471
兮	-14472
嘱	-14473
邓	-14474
帘	-14475
镖	-14476
蚁	-14477
逢	-14478
橙	-14479
斐	-14480
皂	-14481
刹	-14482
碱	-14483
翔	-14484
沼	-14485
凸	-14486
泌	-14487
姬	-14488
绞	-14489
棺	-14490
啸	-14491
钦	-14492
舟	-14493
捆	-14494
剔	-14495
涡	-14496
筛	-14497
柠	-14498
氮	-14499
飓	-14500
熏	-14501
蝇	-14502
寞	-14503
茎	-14504
厘	-14505
恳	-14506
翘	-14507
氯	-14508
俘	-14509
咐	-14510
碌	-14511
檬	-14512
疹	-14513
掷	-14514
涅	-14515
捧	-14516
瀑	-14517
簿	-14518
耽	-14519
昔	-14520
哑	-14521
唬	-14522
阀	-14523
茅	-14524
捅	-14525
醋	-14526
忏	-14527
喇	-14528
衔	-14529
屑	-14530
蛙	-14531
狡	-14532
窒	-14533
咳	-14534
酮	-14535
烘	-14536
蝠	-14537
嗜	-14538
浩	-14539
竖	-14540
胚	-14541
饪	-14542
蝴	-14543
赂	-14544
逸	-14545
哮	-14546
宵	-14547
胰	-14548
肋	-14549
逾	-14550
挠	-14551
烯	-14552
舅	-14553
悼	-14554
豚	-14555
铭	-14556
崔	-14557
缚	-14558
屉	-14559
酗	-14560
杖	-14561
弓	-14562
晤	-14563
嵌	-14564
匈	-14565
寨	-14566
钝	-14567
婪	-14568
侯	-14569
凳	-14570
藻	-14571
蝙	-14572
颂	-14573
癫	-14574
虔	-14575
笛	-14576
哺	-14577
眨	-14578
酵	-14579
溺	-14580
腥	-14581
癖	-14582
虹	-14583
浇	-14584
焚	-14585
赁	-14586
丙	-14587
碧	-14588
琐	-14589
挚	-14590
贞	-14591
纺	-14592
*	-14593
吩	-14594
驼	-14595
狸	-14596
咎	-14597
剃	-14598
Y	-14599
呗	-14600
濒	-14601
亭	-14602
臀	-14603
躯	-14604
崛	-14605
聋	-14606
熔	-14607
撇	-14608
韵	-14609
磷	-14610
膛	-14611
遏	-14612
拙	-14613
锤	-14614
窍	-14615
魁	-14616
坊	-14617
颅	-14618
塘	-14619
蕉	-14620
惕	-14621
骸	-14622
傅	-14623
勘	-14624
苛	-14625
鸿	-14626
铲	-14627
戳	-14628
痪	-14629
驯	-14630
翠	-14631
瑜	-14632
嗅	-14633
舔	-14634
陀	-14635
亥	-14636
柳	-14637
疆	-14638
宋	-14639
稚	-14640
斧	-14641
煌	-14642
氓	-14643
赦	-14644
唠	-14645
帖	-14646
髦	-14647
桂	-14648
殴	-14649
鳄	-14650
礁	-14651
瓣	-14652
凿	-14653
窟	-14654
沦	-14655
蹦	-14656
掀	-14657
绊	-14658
峻	-14659
苯	-14660
悯	-14661
迦	-14662
卦	-14663
熄	-14664
嗑	-14665
渊	-14666
砂	-14667
泵	-14668
褐	-14669
圳	-14670
吾	-14671
蟹	-14672
锈	-14673
晴	-14674
涛	-14675
纲	-14676
掺	-14677
後	-14678
诀	-14679
巩	-14680
懈	-14681
粥	-14682
馨	-14683
岭	-14684
钙	-14685
娇	-14686
旷	-14687
舶	-14688
咸	-14689
羡	-14690
抨	-14691
腻	-14692
诫	-14693
歹	-14694
勺	-14695
隙	-14696
菊	-14697
饵	-14698
喧	-14699
昭	-14700
茂	-14701
贤	-14702
栅	-14703
悍	-14704
媚	-14705
黏	-14706
肴	-14707
揽	-14708
猾	-14709
旬	-14710
狙	-14711
卿	-14712
戮	-14713
噬	-14714
堤	-14715
掐	-14716
瑚	-14717
颖	-14718
叮	-14719
撼	-14720
+	-14721
昌	-14722
冤	-14723
蒜	-14724
铸	-14725
耸	-14726
橘	-14727
煽	-14728
敷	-14729
喽	-14730
靶	-14731
X	-14732
绸	-14733
盎	-14734
酯	-14735
僧	-14736
绷	-14737
啰	-14738
榴	-14739
蚊	-14740
拇	-14741
拱	-14742
韧	-14743
喋	-14744
柬	-14745
梗	-14746
狩	-14747
缔	-14748
淀	-14749
$	-14750
瞪	-14751
倘	-14752
惫	-14753
勿	-14754
溅	-14755
踝	-14756
洽	-14757
疮	-14758
拽	-14759
莽	-14760
榈	-14761
烷	-14762
拌	-14763
聆	-14764
跤	-14765
崭	-14766
澄	-14767
扼	-14768
蔑	-14769
辟	-14770
嬉	-14771
蕴	-14772
钠	-14773
朽	-14774
郑	-14775
唾	-14776
徐	-14777
焊	-14778
抉	-14779
亵	-14780
僻	-14781
泻	-14782
梵	-14783
渺	-14784
睾	-14785
亩	-14786
傍	-14787
冯	-14788
蚂	-14789
荧	-14790
枢	-14791
秦	-14792
岔	-14793
毗	-14794
觅	-14795
刃	-14796
酋	-14797
叭	-14798
铀	-14799
捍	-14800
逍	-14801
嗡	-14802
惟	-14803
畸	-14804
凰	-14805
逞	-14806
哩	-14807
姜	-14808
硝	-14809
菇	-14810
沸	-14811
谤	-14812
梨	-14813
樱	-14814
辙	-14815
怯	-14816
崽	-14817
杏	-14818
嗽	-14819
凹	-14820
吟	-14821
烁	-14822
咕	-14823
嚣	-14824
肘	-14825
颊	-14826
糙	-14827
孽	-14828
徊	-14829
徘	-14830
猿	-14831
榨	-14832
矫	-14833
沛	-14834
栗	-14835
蹄	-14836
绰	-14837
砰	-14838
焕	-14839
睐	-14840
骆	-14841
圭	-14842
骼	-14843
匀	-14844
斩	-14845
陨	-14846
彰	-14847
弈	-14848
钾	-14849
墟	-14850
岂	-14851
萌	-14852
拧	-14853
灿	-14854
乾	-14855
芦	-14856
迭	-14857
渎	-14858
熙	-14859
呜	-14860
禅	-14861
鼎	-14862
诵	-14863
吱	-14864
沈	-14865
渍	-14866
耿	-14867
灼	-14868
椰	-14869
缪	-14870
恤	-14871
拢	-14872
淑	-14873
苔	-14874
奠	-14875
彗	-14876
衅	-14877
埔	-14878
漱	-14879
魄	-14880
祟	-14881
犀	-14882
瞩	-14883
孝	-14884
岳	-14885
Z	-14886
劈	-14887
瘟	-14888
秽	-14889
嘎	-14890
荫	-14891
@	-14892
痫	-14893
魏	-14894
茱	-14895
鱿	-14896
屡	-14897
撬	-14898
瑕	-14899
羔	-14900
伺	-14901
舆	-14902
赃	-14903
帜	-14904
锥	-14905
#	-14906
诽	-14907
涩	-14908
紊	-14909
妳	-14910
惰	-14911
畔	-14912
氟	-14913
冕	-14914
吕	-14915
婉	-14916
蜥	-14917
卒	-14918
姊	-14919
镶	-14920
侏	-14921
蘑	-14922
畴	-14923
孵	-14924
贮	-14925
锚	-14926
遂	-14927
【	-14928
廓	-14929
彬	-14930
痹	-14931
疟	-14932
窘	-14933
躬	-14934
毅	-14935
辰	-14936
辽	-14937
寇	-14938
瞰	-14939
婶	-14940
闸	-14941
嘟	-14942
玄	-14943
唷	-14944
炬	-14945
郭	-14946
骇	-14947
寝	-14948
疵	-14949
睫	-14950
磕	-14951
靡	-14952
钳	-14953
汪	-14954
虏	-14955
琢	-14956
酚	-14957
幺	-14958
嘻	-14959
淤	-14960
滔	-14961
闺	-14962
暇	-14963
吝	-14964
扒	-14965
挛	-14966
】	-14967
鹦	-14968
娩	-14969
悖	-14970
鹤	-14971
憋	-14972
曹	-14973
赵	-14974
眩	-14975
舵	-14976
拣	-14977
篱	-14978
痘	-14979
簧	-14980
扛	-14981
苟	-14982
褪	-14983
俭	-14984
攒	-14985
崎	-14986
鹉	-14987
孢	-14988
瘀	-14989
绣	-14990
螂	-14991
痉	-14992
牡	-14993
蹭	-14994
啃	-14995
窖	-14996
惶	-14997
斋	-14998
沐	-14999
淆	-15000
乓	-15001
徵	-15002
讳	-15003
潭	-15004
弧	-15005
炖	-15006
脓	-15007
葵	-15008
怡	-15009
蔡	-15010
宛	-15011
乍	-15012
窜	-15013
乒	-15014
疡	-15015
萃	-15016
椭	-15017
籽	-15018
凄	-15019
咧	-15020
枉	-15021
芥	-15022
倚	-15023
瞥	-15024
诠	-15025
玲	-15026
绎	-15027
痊	-15028
悚	-15029
杭	-15030
煞	-15031
挟	-15032
棱	-15033
陡	-15034
毋	-15035
妃	-15036
徙	-15037
涕	-15038
醺	-15039
雏	-15040
峭	-15041
扉	-15042
溉	-15043
纬	-15044
伎	-15045
妊	-15046
姚	-15047
镀	-15048
岌	-15049
揪	-15050
咻	-15051
羁	-15052
Q	-15053
姥	-15054
玷	-15055
黯	-15056
膳	-15057
缀	-15058
诶	-15059
叽	-15060
虱	-15061
酥	-15062
撮	-15063
滕	-15064
镯	-15065
揉	-15066
茵	-15067
冗	-15068
碾	-15069
纾	-15070
菠	-15071
盏	-15072
橇	-15073
俏	-15074
咆	-15075
靓	-15076
灶	-15077
凋	-15078
娠	-15079
媳	-15080
忡	-15081
殷	-15082
胱	-15083
桨	-15084
浙	-15085
嗦	-15086
蚕	-15087
羚	-15088
瘸	-15089
鲑	-15090
矢	-15091
磋	-15092
竿	-15093
蜴	-15094
鞍	-15095
睦	-15096
鳞	-15097
柿	-15098
汹	-15099
谭	-15100
暮	-15101
唧	-15102
俺	-15103
咄	-15104
哗	-15105
啬	-15106
眷	-15107
穗	-15108
跋	-15109
蒋	-15110
丐	-15111
茬	-15112
荆	-15113
羹	-15114
茸	-15115
恙	-15116
盹	-15117
榻	-15118
辫	-15119
嗒	-15120
揣	-15121
碘	-15122
翩	-15123
蝎	-15124
嚏	-15125
寥	-15126
脐	-15127
晦	-15128
烙	-15129
嫂	-15130
穹	-15131
慑	-15132
槛	-15133
稠	-15134
昼	-15135
酌	-15136
巅	-15137
惭	-15138
涤	-15139
瞻	-15140
蟑	-15141
睿	-15142
嘶	-15143
敛	-15144
淌	-15145
菅	-15146
夭	-15147
稼	-15148
呛	-15149
甫	-15150
烬	-15151
蜗	-15152
隘	-15153
奄	-15154
肇	-15155
蔗	-15156
蠕	-15157
啪	-15158
梢	-15159
婿	-15160
氰	-15161
=	-15162
涎	-15163
渥	-15164
喃	-15165
殡	-15166
拭	-15167
焉	-15168
磺	-15169
绽	-15170
仕	-15171
讪	-15172
啼	-15173
鞠	-15174
顷	-15175
澜	-15176
拂	-15177
咀	-15178
寐	-15179
腌	-15180
噜	-15181
鳍	-15182
匕	-15183
唆	-15184
沏	-15185
茧	-15186
拴	-15187
缕	-15188
峙	-15189
秉	-15190
睬	-15191
疱	-15192
蛤	-15193
狒	-15194
霞	-15195
恍	-15196
驭	-15197
篡	-15198
蛾	-15199
懊	-15200
怠	-15201
漩	-15202
藐	-15203
邸	-15204
颓	-15205
厥	-15206
酝	-15207
嚎	-15208
辍	-15209
冶	-15210
匮	-15211
猥	-15212
坤	-15213
壕	-15214
嬷	-15215
遛	-15216
腋	-15217
筝	-15218
惺	-15219
袒	-15220
褶	-15221
弘	-15222
栈	-15223
醛	-15224
憩	-15225
蚤	-15226
厮	-15227
窦	-15228
摒	-15229
苷	-15230
蔼	-15231
呦	-15232
袱	-15233
殃	-15234
搂	-15235
搐	-15236
侨	-15237
擒	-15238
痰	-15239
簇	-15240
晾	-15241
禄	-15242
蹩	-15243
锂	-15244
锌	-15245
赘	-15246
枫	-15247
殆	-15248
坍	-15249
譬	-15250
囱	-15251
舷	-15252
跷	-15253
嗷	-15254
惬	-15255
汲	-15256
捎	-15257
嘀	-15258
瑙	-15259
孚	-15260
酰	-15261
陕	-15262
骰	-15263
掳	-15264
殉	-15265
腓	-15266
儡	-15267
嘞	-15268
浣	-15269
猖	-15270
傀	-15271
炙	-15272
诋	-15273
弛	-15274
嗝	-15275
瞅	-15276
笆	-15277
踹	-15278
刨	-15279
姗	-15280
蛎	-15281
霆	-15282
囤	-15283
桔	-15284
萤	-15285
呻	-15286
湛	-15287
阑	-15288
鳗	-15289
砌	-15290
掰	-15291
筏	-15292
肽	-15293
吠	-15294
菱	-15295
抒	-15296
罹	-15297
菩	-15298
蒲	-15299
侃	-15300
厩	-15301
喳	-15302
檐	-15303
蜚	-15304
甥	-15305
篝	-15306
鸠	-15307
呱	-15308
嫖	-15309
螃	-15310
伶	-15311
阉	-15312
颌	-15313
捂	-15314
砾	-15315
跚	-15316
鞘	-15317
孜	-15318
[	-15319
腮	-15320
汐	-15321
洼	-15322
缄	-15323
镁	-15324
啄	-15325
坨	-15326
汞	-15327
颚	-15328
]	-15329
瞌	-15330
馏	-15331
彦	-15332
钛	-15333
蹒	-15334
炽	-15335
笃	-15336
禧	-15337
唑	-15338
匣	-15339
垢	-15340
鼾	-15341
_	-15342
跛	-15343
娼	-15344
笋	-15345
萦	-15346
蹊	-15347
鸥	-15348
絮	-15349
灸	-15350
兢	-15351
蜷	-15352
轧	-15353
沌	-15354
侥	-15355
怂	-15356
昵	-15357
谚	-15358
沥	-15359
貂	-15360
亟	-15361
潇	-15362
斟	-15363
澈	-15364
绚	-15365
臆	-15366
轩	-15367
豌	-15368
嘣	-15369
芹	-15370
禀	-15371
臼	-15372
叁	-15373
嘈	-15374
垦	-15375
冉	-15376
暧	-15377
芮	-15378
亢	-15379
潦	-15380
踵	-15381
媲	-15382
曙	-15383
眸	-15384
薛	-15385
饺	-15386
喱	-15387
朦	-15388
芜	-15389
邋	-15390
阪	-15391
暨	-15392
焙	-15393
萍	-15394
咚	-15395
拎	-15396
胧	-15397
腱	-15398
茉	-15399
哒	-15400
皿	-15401
诬	-15402
疙	-15403
彪	-15404
曰	-15405
潢	-15406
瘩	-15407
簸	-15408
耦	-15409
谛	-15410
驹	-15411
帚	-15412
檀	-15413
窑	-15414
浊	-15415
佼	-15416
秤	-15417
栩	-15418
铛	-15419
涸	-15420
纫	-15421
幌	-15422
忿	-15423
愣	-15424
枣	-15425
祀	-15426
咔	-15427
攸	-15428
讥	-15429
镍	-15430
髋	-15431
遢	-15432
剽	-15433
蹋	-15434
缎	-15435
跻	-15436
仨	-15437
倔	-15438
汶	-15439
獗	-15440
颐	-15441
×	-15442
來	-15443
沧	-15444
卤	-15445
撩	-15446
忱	-15447
蜒	-15448
雳	-15449
赡	-15450
粟	-15451
铬	-15452
尹	-15453
蜿	-15454
襟	-15455
瘪	-15456
莺	-15457
髅	-15458
瞳	-15459
這	-15460
烊	-15461
鼬	-15462
刁	-15463
墩	-15464
蛊	-15465
矣	-15466
薰	-15467
剁	-15468
卉	-15469
噎	-15470
淮	-15471
苞	-15472
铎	-15473
撵	-15474
犁	-15475
珥	-15476
蹂	-15477
藩	-15478
歼	-15479
霹	-15480
朔	-15481
牟	-15482
邱	-15483
婷	-15484
眶	-15485
筷	-15486
躏	-15487
骷	-15488
屯	-15489
撂	-15490
邑	-15491
鹫	-15492
們	-15493
帷	-15494
眺	-15495
恿	-15496
逅	-15497
邂	-15498
柑	-15499
漓	-15500
竣	-15501
蟀	-15502
迂	-15503
哔	-15504
惦	-15505
绯	-15506
鹏	-15507
孪	-15508
疽	-15509
胫	-15510
琥	-15511
雁	-15512
箫	-15513
肛	-15514
蘸	-15515
鳕	-15516
缭	-15517
蜕	-15518
蟋	-15519
吭	-15520
啮	-15521
倪	-15522
悴	-15523
褒	-15524
珈	-15525
戛	-15526
搓	-15527
擂	-15528
眯	-15529
诲	-15530
旭	-15531
娴	-15532
憔	-15533
赝	-15534
冀	-15535
屌	-15536
磐	-15537
诧	-15538
雹	-15539
骡	-15540
氪	-15541
渲	-15542
瘠	-15543
惚	-15544
铂	-15545
桅	-15546
辗	-15547
镳	-15548
霄	-15549
岖	-15550
楷	-15551
迥	-15552
矗	-15553
筐	-15554
羟	-15555
恺	-15556
疝	-15557
嗤	-15558
辘	-15559
侬	-15560
俑	-15561
蕊	-15562
麋	-15563
憧	-15564
湘	-15565
盥	-15566
芋	-15567
～	-15568
扪	-15569
挝	-15570
烃	-15571
裘	-15572
酊	-15573
個	-15574
咩	-15575
澎	-15576
炊	-15577
熠	-15578
翡	-15579
帧	-15580
憬	-15581
攘	-15582
痣	-15583
忒	-15584
靖	-15585
哉	-15586
魇	-15587
悸	-15588
烩	-15589
恪	-15590
砷	-15591
β	-15592
曳	-15593
獭	-15594
葫	-15595
讣	-15596
啜	-15597
氦	-15598
汝	-15599
猝	-15600
迢	-15601
喵	-15602
攫	-15603
犸	-15604
眈	-15605
枭	-15606
枷	-15607
毡	-15608
偎	-15609
孰	-15610
楔	-15611
燔	-15612
芸	-15613
咏	-15614
脯	-15615
叩	-15616
蛆	-15617
楣	-15618
沓	-15619
泞	-15620
霾	-15621
蹬	-15622
俾	-15623
叼	-15624
咫	-15625
榆	-15626
瓢	-15627
锢	-15628
柚	-15629
裆	-15630
奕	-15631
惮	-15632
蔚	-15633
渝	-15634
犊	-15635
龊	-15636
龌	-15637
坷	-15638
腑	-15639
蛀	-15640
屹	-15641
馁	-15642
谕	-15643
拮	-15644
睽	-15645
钚	-15646
睑	-15647
磊	-15648
`	-15649
吮	-15650
鸵	-15651
捶	-15652
迸	-15653
啧	-15654
槌	-15655
皈	-15656
莞	-15657
镰	-15658
呣	-15659
颞	-15660
匡	-15661
媛	-15662
俐	-15663
搔	-15664
斌	-15665
札	-15666
祉	-15667
禾	-15668
蓉	-15669
躇	-15670
狈	-15671
粤	-15672
荚	-15673
谙	-15674
踌	-15675
剿	-15676
疣	-15677
遐	-15678
蝗	-15679
裳	-15680
锣	-15681
霓	-15682
吏	-15683
蟾	-15684
搀	-15685
甄	-15686
箍	-15687
麼	-15688
惋	-15689
醚	-15690
夥	-15691
彷	-15692
掂	-15693
痞	-15694
糜	-15695
蕨	-15696
麟	-15697
珂	-15698
釜	-15699
兀	-15700
恃	-15701
雯	-15702
萼	-15703
龈	-15704
艮	-15705
荟	-15706
阂	-15707
∮	-15708
娄	-15709
瀚	-15710
酩	-15711
『	-15712
洙	-15713
糗	-15714
缤	-15715
骏	-15716
孬	-15717
蟒	-15718
觎	-15719
抠	-15720
秆	-15721
茁	-15722
裨	-15723
』	-15724
哝	-15725
虞	-15726
鄂	-15727
涮	-15728
裴	-15729
觊	-15730
邃	-15731
鲤	-15732
沪	-15733
牒	-15734
甭	-15735
噗	-15736
莹	-15737
褥	-15738
诙	-15739
喙	-15740
梧	-15741
缮	-15742
苇	-15743
酣	-15744
痔	-15745
楠	-15746
绌	-15747
箴	-15748
恬	-15749
桦	-15750
湮	-15751
桐	-15752
沒	-15753
箔	-15754
鹃	-15755
纶	-15756
袤	-15757
秧	-15758
踱	-15759
钵	-15760
孀	-15761
缰	-15762
鳟	-15763
鼹	-15764
─	-15765
噱	-15766
罂	-15767
耙	-15768
铵	-15769
嘭	-15770
斡	-15771
蛭	-15772
赊	-15773
匝	-15774
篓	-15775
蜓	-15776
鲈	-15777
α	-15778
凛	-15779
嚓	-15780
奚	-15781
杞	-15782
榔	-15783
粼	-15784
茹	-15785
蜻	-15786
跺	-15787
馊	-15788
戟	-15789
搪	-15790
滓	-15791
琉	-15792
苑	-15793
闩	-15794
啶	-15795
會	-15796
說	-15797
涟	-15798
藜	-15799
釉	-15800
鹊	-15801
弩	-15802
荼	-15803
蓿	-15804
儆	-15805
漉	-15806
臃	-15807
袁	-15808
<	-15809
匐	-15810
怦	-15811
牠	-15812
刽	-15813
劾	-15814
庐	-15815
矜	-15816
蚱	-15817
匍	-15818
炳	-15819
琦	-15820
蜀	-15821
蝉	-15822
>	-15823
缇	-15824
黝	-15825
俚	-15826
壑	-15827
癣	-15828
硼	-15829
蜍	-15830
蟆	-15831
谟	-15832
阎	-15833
鹭	-15834
妾	-15835
溴	-15836
碉	-15837
苜	-15838
轶	-15839
戎	-15840
谘	-15841
锄	-15842
鲶	-15843
圃	-15844
捱	-15845
湃	-15846
腆	-15847
跆	-15848
郝	-15849
锰	-15850
颧	-15851
囔	-15852
湄	-15853
瞭	-15854
祛	-15855
惘	-15856
蚓	-15857
诃	-15858
巍	-15859
幔	-15860
摹	-15861
铉	-15862
吡	-15863
嗣	-15864
摁	-15865
昙	-15866
琅	-15867
筵	-15868
藓	-15869
∶	-15870
愕	-15871
攥	-15872
豺	-15873
垣	-15874
涝	-15875
趸	-15876
遁	-15877
妍	-15878
秸	-15879
翱	-15880
鹑	-15881
為	-15882
苣	-15883
镣	-15884
嗪	-15885
痢	-15886
蕃	-15887
哆	-15888
恣	-15889
撅	-15890
笺	-15891
缛	-15892
蔻	-15893
谧	-15894
町	-15895
俨	-15896
猕	-15897
懵	-15898
潺	-15899
獾	-15900
跄	-15901
鸳	-15902
偕	-15903
婢	-15904
湍	-15905
腼	-15906
莴	-15907
螳	-15908
踉	-15909
拗	-15910
痤	-15911
蚯	-15912
嗎	-15913
戊	-15914
璀	-15915
钨	-15916
琵	-15917
皑	-15918
窿	-15919
籁	-15920
粱	-15921
阈	-15922
鹌	-15923
佯	-15924
峨	-15925
璨	-15926
蛰	-15927
螨	-15928
鸯	-15929
堰	-15930
徉	-15931
骋	-15932
拈	-15933
搡	-15934
璧	-15935
茴	-15936
祠	-15937
聂	-15938
讷	-15939
峦	-15940
徜	-15941
淳	-15942
癞	-15943
碴	-15944
蹶	-15945
镉	-15946
鳖	-15947
娥	-15948
榷	-15949
绢	-15950
驮	-15951
鲱	-15952
樟	-15953
瓮	-15954
荔	-15955
谄	-15956
忐	-15957
忑	-15958
敝	-15959
纰	-15960
麝	-15961
漪	-15962
膺	-15963
蹑	-15964
邵	-15965
阮	-15966
麸	-15967
寰	-15968
钴	-15969
鬣	-15970
壹	-15971
斓	-15972
蓓	-15973
褓	-15974
龛	-15975
拚	-15976
晖	-15977
瞠	-15978
荤	-15979
葆	-15980
掖	-15981
汛	-15982
诩	-15983
觑	-15984
讧	-15985
麾	-15986
庶	-15987
瘘	-15988
菁	-15989
嗖	-15990
埠	-15991
廖	-15992
璜	-15993
蚜	-15994
轭	-15995
